unsigned char digits_cnn_quant_tflite[] = {
  0x20, 0x00, 0x00, 0x00, 0x54, 0x46, 0x4c, 0x33, 0x00, 0x00, 0x00, 0x00,
  0x14, 0x00, 0x20, 0x00, 0x1c, 0x00, 0x18, 0x00, 0x14, 0x00, 0x10, 0x00,
  0x0c, 0x00, 0x00, 0x00, 0x08, 0x00, 0x04, 0x00, 0x14, 0x00, 0x00, 0x00,
  0x1c, 0x00, 0x00, 0x00, 0x88, 0x00, 0x00, 0x00, 0xe0, 0x00, 0x00, 0x00,
  0xf0, 0x15, 0x00, 0x00, 0x00, 0x16, 0x00, 0x00, 0x80, 0x20, 0x00, 0x00,
  0x03, 0x00, 0x00, 0x00, 0x01, 0x00, 0x00, 0x00, 0x04, 0x00, 0x00, 0x00,
  0x0a, 0xe9, 0xff, 0xff, 0x0c, 0x00, 0x00, 0x00, 0x1c, 0x00, 0x00, 0x00,
  0x38, 0x00, 0x00, 0x00, 0x0f, 0x00, 0x00, 0x00, 0x73, 0x65, 0x72, 0x76,
  0x69, 0x6e, 0x67, 0x5f, 0x64, 0x65, 0x66, 0x61, 0x75, 0x6c, 0x74, 0x00,
  0x01, 0x00, 0x00, 0x00, 0x04, 0x00, 0x00, 0x00, 0x94, 0xff, 0xff, 0xff,
  0x10, 0x00, 0x00, 0x00, 0x04, 0x00, 0x00, 0x00, 0x07, 0x00, 0x00, 0x00,
  0x64, 0x65, 0x6e, 0x73, 0x65, 0x5f, 0x31, 0x00, 0x01, 0x00, 0x00, 0x00,
  0x04, 0x00, 0x00, 0x00, 0xea, 0xe9, 0xff, 0xff, 0x04, 0x00, 0x00, 0x00,
  0x0c, 0x00, 0x00, 0x00, 0x63, 0x6f, 0x6e, 0x76, 0x32, 0x64, 0x5f, 0x69,
  0x6e, 0x70, 0x75, 0x74, 0x00, 0x00, 0x00, 0x00, 0x02, 0x00, 0x00, 0x00,
  0x34, 0x00, 0x00, 0x00, 0x04, 0x00, 0x00, 0x00, 0xdc, 0xff, 0xff, 0xff,
  0x13, 0x00, 0x00, 0x00, 0x04, 0x00, 0x00, 0x00, 0x13, 0x00, 0x00, 0x00,
  0x43, 0x4f, 0x4e, 0x56, 0x45, 0x52, 0x53, 0x49, 0x4f, 0x4e, 0x5f, 0x4d,
  0x45, 0x54, 0x41, 0x44, 0x41, 0x54, 0x41, 0x00, 0x08, 0x00, 0x0c, 0x00,
  0x08, 0x00, 0x04, 0x00, 0x08, 0x00, 0x00, 0x00, 0x12, 0x00, 0x00, 0x00,
  0x04, 0x00, 0x00, 0x00, 0x13, 0x00, 0x00, 0x00, 0x6d, 0x69, 0x6e, 0x5f,
  0x72, 0x75, 0x6e, 0x74, 0x69, 0x6d, 0x65, 0x5f, 0x76, 0x65, 0x72, 0x73,
  0x69, 0x6f, 0x6e, 0x00, 0x14, 0x00, 0x00, 0x00, 0x0c, 0x15, 0x00, 0x00,
  0x04, 0x15, 0x00, 0x00, 0xf4, 0x0f, 0x00, 0x00, 0xe4, 0x07, 0x00, 0x00,
  0xcc, 0x07, 0x00, 0x00, 0x94, 0x07, 0x00, 0x00, 0x04, 0x07, 0x00, 0x00,
  0xd4, 0x06, 0x00, 0x00, 0x84, 0x06, 0x00, 0x00, 0x54, 0x05, 0x00, 0x00,
  0xc4, 0x00, 0x00, 0x00, 0xbc, 0x00, 0x00, 0x00, 0xb4, 0x00, 0x00, 0x00,
  0xac, 0x00, 0x00, 0x00, 0xa4, 0x00, 0x00, 0x00, 0x9c, 0x00, 0x00, 0x00,
  0x94, 0x00, 0x00, 0x00, 0x8c, 0x00, 0x00, 0x00, 0x6c, 0x00, 0x00, 0x00,
  0x04, 0x00, 0x00, 0x00, 0xb6, 0xea, 0xff, 0xff, 0x04, 0x00, 0x00, 0x00,
  0x58, 0x00, 0x00, 0x00, 0x0c, 0x00, 0x00, 0x00, 0x08, 0x00, 0x0e, 0x00,
  0x08, 0x00, 0x04, 0x00, 0x08, 0x00, 0x00, 0x00, 0x10, 0x00, 0x00, 0x00,
  0x28, 0x00, 0x00, 0x00, 0x00, 0x00, 0x06, 0x00, 0x08, 0x00, 0x04, 0x00,
  0x06, 0x00, 0x00, 0x00, 0x04, 0x00, 0x00, 0x00, 0x01, 0x00, 0x00, 0x00,
  0xea, 0x03, 0x00, 0x00, 0x00, 0x00, 0x0a, 0x00, 0x10, 0x00, 0x0c, 0x00,
  0x08, 0x00, 0x04, 0x00, 0x0a, 0x00, 0x00, 0x00, 0x02, 0x00, 0x00, 0x00,
  0x02, 0x00, 0x00, 0x00, 0x04, 0x00, 0x00, 0x00, 0x06, 0x00, 0x00, 0x00,
  0x32, 0x2e, 0x31, 0x30, 0x2e, 0x31, 0x00, 0x00, 0x1a, 0xeb, 0xff, 0xff,
  0x04, 0x00, 0x00, 0x00, 0x10, 0x00, 0x00, 0x00, 0x32, 0x2e, 0x34, 0x2e,
  0x30, 0x00, 0x00, 0x00, 0x00, 0x00, 0x00, 0x00, 0x00, 0x00, 0x00, 0x00,
  0x68, 0xe1, 0xff, 0xff, 0x6c, 0xe1, 0xff, 0xff, 0x70, 0xe1, 0xff, 0xff,
  0x74, 0xe1, 0xff, 0xff, 0x78, 0xe1, 0xff, 0xff, 0x7c, 0xe1, 0xff, 0xff,
  0x80, 0xe1, 0xff, 0xff, 0x52, 0xeb, 0xff, 0xff, 0x04, 0x00, 0x00, 0x00,
  0x80, 0x04, 0x00, 0x00, 0xb8, 0x41, 0x46, 0x81, 0x74, 0xd9, 0x13, 0xfa,
  0xfe, 0xdf, 0x2b, 0xba, 0x14, 0x2d, 0x1b, 0xfc, 0x16, 0x1d, 0x1c, 0x85,
  0x2e, 0xe7, 0x73, 0xf8, 0x16, 0x11, 0xc7, 0xcd, 0x05, 0x06, 0x06, 0xdf,
  0x4b, 0x57, 0x00, 0xea, 0xbf, 0x4a, 0x0e, 0xdc, 0x58, 0x37, 0xba, 0xd0,
  0xa4, 0x36, 0x2a, 0x1b, 0xc1, 0x1a, 0xac, 0xfd, 0x95, 0x5b, 0x3b, 0x50,
  0xf3, 0x4e, 0xf1, 0xff, 0x69, 0x08, 0xf7, 0xd6, 0x0d, 0x0e, 0x5d, 0xec,
  0x63, 0x46, 0x73, 0x32, 0x21, 0xe6, 0x47, 0xb4, 0x30, 0xac, 0x13, 0xcc,
  0xdf, 0xdf, 0x16, 0x14, 0x31, 0xfb, 0x30, 0x16, 0xfe, 0x1e, 0x04, 0x9f,
  0x11, 0xf7, 0xe3, 0x05, 0x5b, 0x3f, 0xf7, 0xe2, 0xea, 0x5b, 0x12, 0x0c,
  0x6e, 0x41, 0x17, 0xc4, 0xc5, 0x32, 0x1b, 0x2f, 0x02, 0xf1, 0xd5, 0x12,
  0xf4, 0x17, 0xf6, 0x2a, 0x81, 0xd5, 0xc6, 0xcf, 0xd2, 0x29, 0xd6, 0x43,
  0xdc, 0x3b, 0xc1, 0xe8, 0xaa, 0x3b, 0x22, 0x4e, 0x05, 0xfc, 0x17, 0xe4,
  0x34, 0x29, 0xf6, 0x23, 0x6e, 0xca, 0x10, 0x75, 0xf9, 0xd6, 0xe1, 0x10,
  0xc6, 0x8f, 0xda, 0x19, 0xaf, 0xca, 0x4f, 0x0f, 0x38, 0x14, 0xb3, 0x4f,
  0x10, 0x3d, 0xe2, 0x0c, 0xb9, 0x51, 0xba, 0xf5, 0x0d, 0xf8, 0xf5, 0xfa,
  0x81, 0xf1, 0xd6, 0x15, 0x48, 0x25, 0xe5, 0xb5, 0x2f, 0x31, 0x48, 0xdf,
  0x2d, 0x15, 0xcc, 0x35, 0x27, 0x59, 0x19, 0x1a, 0x3e, 0xe7, 0x00, 0xb1,
  0xf7, 0xdd, 0x0d, 0xb7, 0x31, 0xdf, 0xc7, 0x03, 0x29, 0x17, 0xfa, 0xfb,
  0x04, 0xf3, 0x4a, 0x38, 0x78, 0x5a, 0x29, 0xc6, 0x39, 0x08, 0x3a, 0xab,
  0x8b, 0xef, 0x45, 0x03, 0xc4, 0x54, 0x28, 0xa0, 0x8a, 0xb4, 0xc1, 0xc9,
  0xdc, 0xda, 0xa5, 0x17, 0x8a, 0x52, 0x2b, 0x2a, 0x95, 0xc0, 0x98, 0x84,
  0x43, 0xa5, 0xcb, 0x17, 0xec, 0xc4, 0x24, 0x81, 0x4b, 0x8b, 0x2f, 0x3e,
  0xd3, 0x3e, 0xab, 0xf7, 0x45, 0xe5, 0x60, 0xe8, 0x3f, 0x25, 0x63, 0xf6,
  0xf2, 0xe8, 0x53, 0x55, 0x11, 0x1b, 0xef, 0xdc, 0xc3, 0x24, 0x5d, 0x2a,
  0x52, 0xeb, 0x95, 0xd4, 0x55, 0x2c, 0x6a, 0x4c, 0xfd, 0x4e, 0x15, 0xf6,
  0x25, 0x89, 0xe8, 0xcd, 0xcd, 0x81, 0xcb, 0x61, 0x43, 0x94, 0xd2, 0x00,
  0xce, 0x8b, 0xfb, 0xa3, 0x85, 0x2d, 0xf1, 0x68, 0x4c, 0xf9, 0xda, 0x4a,
  0x95, 0xa9, 0x97, 0xd9, 0x51, 0xd3, 0x94, 0xb8, 0x48, 0xa7, 0x4c, 0xb3,
  0xf5, 0x33, 0x5e, 0x37, 0x49, 0x48, 0xfa, 0xe6, 0x41, 0x8c, 0xc5, 0x98,
  0xf5, 0xd5, 0x5d, 0x30, 0x3a, 0x47, 0x83, 0xe3, 0xd6, 0x82, 0x4a, 0x58,
  0x61, 0xf0, 0x0e, 0x3b, 0x81, 0x09, 0x0f, 0xcd, 0x09, 0x09, 0xf8, 0xf1,
  0x4a, 0xf8, 0x34, 0x45, 0x3b, 0x38, 0xff, 0x0c, 0x39, 0xca, 0x03, 0x36,
  0xd9, 0xaa, 0xf2, 0xd9, 0x07, 0x75, 0x0d, 0x01, 0xd1, 0x45, 0xed, 0x2f,
  0x2c, 0x07, 0x08, 0xe9, 0x28, 0x14, 0xca, 0x26, 0xfd, 0xd0, 0x2d, 0x91,
  0x77, 0xdb, 0x25, 0x29, 0xd7, 0x4d, 0x2e, 0x1e, 0x0f, 0x1b, 0x3c, 0x34,
  0x20, 0x01, 0x39, 0xb4, 0x0e, 0x20, 0x35, 0x2c, 0xde, 0xfb, 0xe6, 0x00,
  0xdc, 0x02, 0x2b, 0x1b, 0x52, 0x97, 0xf7, 0x55, 0x09, 0x0c, 0xbc, 0xdd,
  0xfb, 0x39, 0xe6, 0x14, 0xf9, 0x09, 0xf1, 0x33, 0x01, 0xe1, 0x9e, 0xde,
  0xc6, 0xd8, 0x9a, 0xe4, 0x81, 0x44, 0xa7, 0x05, 0xe6, 0xe0, 0x0b, 0x13,
  0xdf, 0x25, 0xd3, 0xd2, 0xe9, 0x22, 0x11, 0x0c, 0xef, 0x1f, 0xde, 0x95,
  0xf9, 0x0b, 0xdf, 0xeb, 0xbb, 0x13, 0xd3, 0xcf, 0xf3, 0x8e, 0x09, 0x14,
  0xe0, 0x55, 0x36, 0xbf, 0x6e, 0x1d, 0x34, 0x59, 0x00, 0x4d, 0x23, 0xab,
  0x63, 0xf8, 0xf6, 0xf6, 0x3e, 0xca, 0x0b, 0x54, 0xc0, 0x26, 0x1f, 0x31,
  0x1c, 0xfc, 0xdb, 0x52, 0xc8, 0xec, 0xd3, 0xff, 0x06, 0x21, 0xd4, 0x7f,
  0xf6, 0xed, 0xc3, 0x04, 0x04, 0x01, 0x0b, 0x1b, 0xfb, 0x16, 0x17, 0x18,
  0x09, 0x09, 0x27, 0x03, 0x4e, 0xf8, 0xe6, 0x37, 0x00, 0xfc, 0x61, 0xf1,
  0x2a, 0xef, 0x2e, 0xeb, 0x06, 0x20, 0x4c, 0x1f, 0x5d, 0x32, 0x52, 0xdb,
  0x0d, 0xd7, 0x12, 0xff, 0x2f, 0x2a, 0x07, 0x32, 0xf2, 0xdf, 0x02, 0x33,
  0x16, 0xff, 0x0c, 0xfd, 0xe8, 0x1e, 0xc3, 0x55, 0xe2, 0x48, 0xd8, 0x42,
  0xc4, 0xd2, 0xe4, 0xfc, 0xee, 0xe0, 0xfe, 0x2a, 0xff, 0x4c, 0xfb, 0x2a,
  0xfb, 0x67, 0xf5, 0x42, 0x41, 0xaa, 0x14, 0x5f, 0x43, 0xc1, 0x00, 0xbb,
  0xd4, 0xbc, 0x21, 0x10, 0xda, 0xf1, 0x30, 0x09, 0x5c, 0x46, 0xc4, 0x0f,
  0x81, 0x2c, 0xd3, 0x07, 0x32, 0xb8, 0x34, 0xce, 0x5e, 0xba, 0x3a, 0xf0,
  0xdf, 0x02, 0x3c, 0xc7, 0x62, 0xe6, 0x26, 0x34, 0x2b, 0x31, 0x77, 0xae,
  0x5a, 0xff, 0x25, 0xf2, 0xdc, 0x17, 0xde, 0x18, 0x10, 0xe3, 0xf4, 0xe6,
  0x27, 0x3b, 0x30, 0xe3, 0x20, 0x04, 0xf9, 0x2c, 0x27, 0xdb, 0xc5, 0x72,
  0xea, 0x1a, 0xda, 0xe8, 0x6f, 0x9e, 0x43, 0x07, 0x2f, 0xf6, 0x2e, 0xbd,
  0xe3, 0xe8, 0x3c, 0x10, 0x1f, 0x27, 0x76, 0x41, 0x00, 0x01, 0x70, 0x14,
  0x6f, 0xe1, 0xef, 0xe3, 0xfe, 0xd1, 0xed, 0xd7, 0x0b, 0xd0, 0xfb, 0xf0,
  0xfc, 0x17, 0xdf, 0x24, 0xb9, 0x31, 0xe7, 0x42, 0x20, 0xfb, 0x47, 0xd9,
  0x7f, 0x14, 0x12, 0x2d, 0x1c, 0x72, 0x8b, 0x1f, 0xea, 0x2a, 0x81, 0xc8,
  0xb9, 0xa1, 0x39, 0x9f, 0x4b, 0xa4, 0x85, 0x0d, 0xc6, 0xce, 0x60, 0xb8,
  0xf1, 0xce, 0x6b, 0xd9, 0x18, 0xd5, 0x81, 0x68, 0x72, 0x1c, 0xbe, 0xf4,
  0x66, 0xb1, 0xa8, 0x82, 0x40, 0x06, 0x9b, 0x21, 0x74, 0x1c, 0xe9, 0x4b,
  0x65, 0xb1, 0xca, 0x2f, 0x2c, 0x0f, 0xd1, 0x33, 0x30, 0x4d, 0xd8, 0xc5,
  0xc9, 0x37, 0x86, 0x6d, 0x0f, 0x37, 0xbf, 0xfb, 0x47, 0x09, 0xf7, 0xa8,
  0x65, 0x8e, 0x21, 0xdf, 0x19, 0xdf, 0xc2, 0xf2, 0x3a, 0x8c, 0x66, 0x49,
  0xb3, 0x56, 0x3d, 0x9c, 0x47, 0xc6, 0x13, 0xb1, 0xb8, 0x23, 0x42, 0x41,
  0x43, 0xc2, 0x6a, 0x8e, 0x18, 0x91, 0x8b, 0xc1, 0xb5, 0x46, 0x97, 0xae,
  0x81, 0x49, 0x82, 0xa4, 0x44, 0x99, 0x0b, 0xfc, 0x0b, 0x61, 0x08, 0xdc,
  0x00, 0x37, 0xbd, 0x91, 0xe0, 0x84, 0x10, 0x48, 0x94, 0x04, 0x15, 0xe8,
  0x0c, 0xb2, 0x10, 0xda, 0xd9, 0xa3, 0xc1, 0x63, 0xef, 0x20, 0x94, 0x82,
  0x3c, 0x41, 0xbc, 0x5e, 0x21, 0xfc, 0x41, 0xb1, 0xd8, 0xf0, 0xfa, 0xd7,
  0xf2, 0xef, 0x4f, 0x44, 0x0c, 0x42, 0x17, 0x26, 0x23, 0x05, 0xe4, 0x5e,
  0xc2, 0xe0, 0xba, 0xf4, 0xe1, 0xdf, 0xb6, 0x0c, 0xcc, 0xec, 0x31, 0xec,
  0xf2, 0x22, 0xbc, 0xf3, 0xf5, 0x24, 0x00, 0x28, 0xfa, 0xf1, 0x40, 0xdd,
  0x3d, 0xe6, 0x21, 0x07, 0xd0, 0x0d, 0x03, 0xe2, 0xfa, 0xf2, 0x2d, 0xcf,
  0x3a, 0x10, 0xe8, 0x02, 0xff, 0x1e, 0x1c, 0x32, 0x1c, 0x0b, 0x8f, 0xe6,
  0x81, 0x1a, 0x39, 0x00, 0x7e, 0x1b, 0x22, 0x37, 0x23, 0xf2, 0xd9, 0xf8,
  0x23, 0xf8, 0xf6, 0xda, 0xd1, 0x07, 0x4a, 0xeb, 0x21, 0x27, 0xfa, 0x03,
  0xf2, 0x3b, 0x13, 0x43, 0xf7, 0x09, 0x0f, 0xee, 0x31, 0x15, 0xfe, 0x1d,
  0x13, 0xf8, 0x28, 0xef, 0x0a, 0x0e, 0x29, 0x06, 0xf0, 0x2c, 0x12, 0x2f,
  0x35, 0xff, 0xf7, 0x2c, 0x53, 0x12, 0x21, 0xf1, 0x1e, 0xf9, 0xb5, 0x0b,
  0x28, 0xe0, 0xca, 0x64, 0xd7, 0xfd, 0x31, 0x0a, 0x30, 0xe4, 0x81, 0x52,
  0xa0, 0x02, 0x9b, 0x0c, 0x15, 0x29, 0x14, 0x81, 0x24, 0xdc, 0xfb, 0x0c,
  0xcd, 0x29, 0x29, 0xc4, 0x45, 0x34, 0x2e, 0x26, 0x00, 0xe0, 0x1f, 0x12,
  0x03, 0x2f, 0x02, 0x0b, 0x9d, 0xf1, 0xd8, 0x48, 0xc9, 0x16, 0x10, 0xfe,
  0xd9, 0x21, 0xb5, 0x26, 0xfc, 0x2f, 0xf0, 0x02, 0xfd, 0x3f, 0x0e, 0xeb,
  0xce, 0x0b, 0xce, 0x27, 0x25, 0x2c, 0x1e, 0x4b, 0x2f, 0xf3, 0xcc, 0xe9,
  0xe5, 0xcf, 0x0b, 0xe4, 0x16, 0xcb, 0x0c, 0xfd, 0x14, 0x24, 0xea, 0xf2,
  0x9f, 0x08, 0xce, 0x3d, 0x81, 0x5d, 0x19, 0xa7, 0xf3, 0x1e, 0x5e, 0x16,
  0x21, 0x32, 0xe4, 0x39, 0x1c, 0x07, 0xab, 0x33, 0xd5, 0xf9, 0x47, 0x20,
  0x17, 0x04, 0x78, 0x39, 0xb3, 0xff, 0xf0, 0x3f, 0xc3, 0xe0, 0x1a, 0x1c,
  0xfa, 0x37, 0x03, 0x0a, 0x34, 0x2b, 0x9b, 0x1b, 0x14, 0x23, 0xd4, 0xe3,
  0xad, 0xe7, 0x08, 0x0b, 0x01, 0x0d, 0x29, 0xed, 0x21, 0x52, 0x23, 0xe6,
  0x30, 0xf9, 0x3e, 0x15, 0x29, 0x06, 0x26, 0xd6, 0x1a, 0xe5, 0x16, 0x40,
  0xaf, 0x1d, 0x34, 0x06, 0xde, 0xef, 0xff, 0xff, 0x04, 0x00, 0x00, 0x00,
  0x20, 0x01, 0x00, 0x00, 0x77, 0xc4, 0xd6, 0x3e, 0xf7, 0xe0, 0x8c, 0x3d,
  0x0d, 0x6b, 0x08, 0x3d, 0x23, 0x87, 0xfb, 0xbd, 0xb2, 0xb1, 0xab, 0xbe,
  0x8a, 0xc1, 0x16, 0xbf, 0xeb, 0xfb, 0x95, 0x3e, 0xe6, 0x68, 0xeb, 0xbe,
  0x32, 0x16, 0xfa, 0x3e, 0x3e, 0xc7, 0x2b, 0x3f, 0xe3, 0x28, 0xd6, 0x3c,
  0xfd, 0xa8, 0x44, 0xbe, 0x3b, 0x26, 0xfa, 0x3e, 0x0f, 0xd3, 0x9d, 0xbe,
  0x29, 0xed, 0xeb, 0xbe, 0x0c, 0xe3, 0xfe, 0x3e, 0x0a, 0xda, 0x19, 0x3f,
  0x41, 0xc5, 0xdd, 0x3d, 0x96, 0x98, 0xdb, 0xbe, 0x25, 0x24, 0xed, 0xbe,
  0x51, 0x21, 0x03, 0xbf, 0x5a, 0x47, 0xb0, 0x3d, 0x4e, 0xe1, 0x53, 0xbd,
  0x54, 0x27, 0x0b, 0xbe, 0x26, 0xb6, 0x26, 0x3f, 0x96, 0x63, 0x85, 0x3e,
  0x71, 0x50, 0x0e, 0x3f, 0x9c, 0xad, 0x60, 0x3e, 0x65, 0xfe, 0x38, 0x3f,
  0xdf, 0x82, 0x19, 0x3f, 0xcf, 0x98, 0x10, 0x3e, 0xbf, 0x90, 0x9f, 0x3c,
  0x45, 0x29, 0x8b, 0xbd, 0x76, 0x3d, 0xca, 0xbd, 0xa7, 0x5d, 0x19, 0xbf,
  0x82, 0xc8, 0x2b, 0xbf, 0x9c, 0xe3, 0x53, 0xbe, 0x3f, 0x0d, 0x33, 0xbf,
  0xe3, 0x13, 0xec, 0xbe, 0x3f, 0xe4, 0xb4, 0x3e, 0xe3, 0x91, 0x93, 0x3e,
  0x50, 0xb7, 0x43, 0xbd, 0x40, 0xe9, 0x8f, 0x3d, 0x43, 0x90, 0xa7, 0x3e,
  0x57, 0xec, 0x07, 0x3f, 0x3e, 0xe9, 0xc1, 0x3e, 0x8d, 0x34, 0xbe, 0x3e,
  0x1e, 0x48, 0x1b, 0x3d, 0x74, 0x1e, 0x1e, 0x3f, 0xa3, 0xd7, 0xa1, 0x3e,
  0x36, 0xfd, 0xd8, 0xbe, 0x3c, 0xf0, 0x1b, 0x3f, 0x42, 0x04, 0xec, 0xbc,
  0x86, 0x59, 0xf0, 0x3d, 0xfc, 0xe7, 0xe4, 0xbc, 0xe1, 0xde, 0x8b, 0x3d,
  0x0f, 0xae, 0x17, 0x3e, 0x7e, 0x95, 0x04, 0xbf, 0x0a, 0xbc, 0x3a, 0x3f,
  0xe6, 0xd5, 0x80, 0x3d, 0x6e, 0xa5, 0x29, 0x3e, 0xc2, 0x06, 0x3f, 0x3f,
  0x48, 0x4e, 0x1f, 0xbd, 0x42, 0xd6, 0x05, 0x3f, 0xa0, 0xfc, 0x95, 0x3d,
  0xb8, 0x93, 0x2d, 0x3e, 0x28, 0xc0, 0x02, 0x3f, 0x58, 0xf1, 0xf9, 0x3e,
  0xe7, 0xdd, 0x97, 0x3d, 0x56, 0x54, 0x0f, 0x3f, 0x71, 0x54, 0x34, 0x3e,
  0x4a, 0xce, 0x93, 0xbd, 0x0a, 0xf1, 0xff, 0xff, 0x04, 0x00, 0x00, 0x00,
  0x40, 0x00, 0x00, 0x00, 0xbf, 0xf6, 0x41, 0x3d, 0x13, 0xf8, 0xff, 0x3c,
  0xbb, 0xba, 0xe9, 0x3c, 0x1f, 0x0b, 0x1e, 0xbc, 0x15, 0xee, 0x66, 0xbc,
  0x5f, 0x29, 0x1d, 0xbb, 0x29, 0x8e, 0xb0, 0x3c, 0xf3, 0xac, 0x51, 0x3d,
  0x03, 0x58, 0xca, 0x3d, 0xd4, 0x2b, 0x0f, 0x3d, 0x93, 0xac, 0x2e, 0xbc,
  0xe0, 0x8d, 0x8f, 0xbc, 0x86, 0xf1, 0x16, 0x3d, 0x36, 0x7d, 0x9c, 0x3d,
  0xcf, 0x34, 0x12, 0x3d, 0xfb, 0x8f, 0x6f, 0x3d, 0x56, 0xf1, 0xff, 0xff,
  0x04, 0x00, 0x00, 0x00, 0x20, 0x00, 0x00, 0x00, 0xb0, 0xd9, 0x5d, 0x3e,
  0x43, 0x60, 0xdd, 0x3c, 0x48, 0x5e, 0x6a, 0x3e, 0xfa, 0x75, 0x20, 0x3e,
  0x7c, 0x0b, 0x50, 0x3e, 0xf6, 0xb5, 0x4a, 0x3d, 0xad, 0x8c, 0xd5, 0x3d,
  0x9c, 0x9a, 0xc4, 0x3d, 0x82, 0xf1, 0xff, 0xff, 0x04, 0x00, 0x00, 0x00,
  0x80, 0x00, 0x00, 0x00, 0x8f, 0x16, 0xcb, 0x39, 0x7e, 0x37, 0x5a, 0x34,
  0xaf, 0x6e, 0x54, 0x3d, 0xf7, 0xef, 0x28, 0xbd, 0xe1, 0x07, 0x28, 0x3e,
  0x63, 0xa7, 0x2a, 0x3d, 0x91, 0xe4, 0x47, 0x3c, 0xa2, 0xd6, 0xa6, 0x3d,
  0x82, 0x10, 0x1c, 0x3d, 0xf0, 0x61, 0x3e, 0x3d, 0x5d, 0x94, 0x81, 0xbd,
  0x1b, 0x32, 0xe2, 0x3c, 0x8c, 0xa3, 0x98, 0x3d, 0xa5, 0xd1, 0xf5, 0x3d,
  0x5f, 0xff, 0x2a, 0x3e, 0x71, 0x8a, 0xf7, 0x3b, 0x12, 0xeb, 0x00, 0x3e,
  0x00, 0x00, 0x00, 0x00, 0xe8, 0xd7, 0x9c, 0x3d, 0x00, 0x00, 0x00, 0x00,
  0x38, 0x3a, 0x0e, 0xbb, 0xe5, 0x97, 0x0c, 0x3e, 0x37, 0x33, 0xaa, 0x3d,
  0xa6, 0xbd, 0x74, 0x3d, 0xfc, 0x41, 0x42, 0x3b, 0xd4, 0xa4, 0xa9, 0x3d,
  0x57, 0x52, 0x57, 0x3c, 0xc0, 0xbe, 0x13, 0x3d, 0x04, 0x5b, 0x8a, 0x3c,
  0x92, 0xbf, 0x80, 0x3d, 0x2b, 0x7b, 0xc0, 0xbc, 0xe6, 0x7f, 0x6d, 0xbc,
  0x0e, 0xf2, 0xff, 0xff, 0x04, 0x00, 0x00, 0x00, 0x28, 0x00, 0x00, 0x00,
  0x4f, 0x01, 0x95, 0x3d, 0x66, 0xf7, 0xb2, 0xbd, 0xb3, 0x50, 0x2d, 0x3c,
  0x0d, 0x7d, 0xc0, 0xbc, 0xed, 0x72, 0x3b, 0x3d, 0xda, 0xd2, 0x58, 0xba,
  0xee, 0x13, 0xff, 0x3b, 0x3e, 0xd7, 0x67, 0x3b, 0x95, 0xa7, 0x15, 0xbd,
  0xd1, 0x81, 0x62, 0x3c, 0x42, 0xf2, 0xff, 0xff, 0x04, 0x00, 0x00, 0x00,
  0x08, 0x00, 0x00, 0x00, 0xff, 0xff, 0xff, 0xff, 0x10, 0x00, 0x00, 0x00,
  0x56, 0xf2, 0xff, 0xff, 0x04, 0x00, 0x00, 0x00, 0x00, 0x08, 0x00, 0x00,
  0xd1, 0xfc, 0x84, 0xbd, 0x34, 0x0a, 0x00, 0xbf, 0xd0, 0xc4, 0xcc, 0xbe,
  0xf3, 0x53, 0x4e, 0xbe, 0x47, 0xca, 0x16, 0x3e, 0xc3, 0x29, 0x78, 0x3e,
  0x42, 0x4d, 0xb5, 0xbe, 0x22, 0x12, 0x7c, 0x3e, 0x78, 0xcf, 0xbf, 0x3e,
  0x1c, 0xaa, 0xdf, 0x3d, 0x7e, 0x55, 0x4d, 0x3e, 0x23, 0xbb, 0x2d, 0x3d,
  0xad, 0x70, 0x97, 0x3e, 0x58, 0x31, 0x06, 0xbd, 0xd5, 0xad, 0xe2, 0x3e,
  0x70, 0x8f, 0x18, 0xbe, 0x3e, 0x93, 0x82, 0xbc, 0x28, 0xbd, 0x9d, 0xbd,
  0xfd, 0xaa, 0xab, 0x3e, 0xb9, 0x2c, 0x57, 0xbe, 0xbe, 0xad, 0x80, 0x3e,
  0x48, 0xdd, 0x6f, 0xbe, 0xe8, 0xdd, 0x98, 0xbe, 0xf8, 0xbb, 0xc5, 0x3d,
  0x43, 0x6a, 0x70, 0xbe, 0x3f, 0x6a, 0xa2, 0xbe, 0xdf, 0x61, 0xc0, 0x3d,
  0xb9, 0x54, 0xb0, 0x3e, 0xf1, 0x09, 0x0f, 0xbd, 0xfa, 0xe5, 0x56, 0x3e,
  0x97, 0xd0, 0x97, 0xbe, 0x81, 0x10, 0xad, 0x3d, 0x92, 0xf2, 0xb8, 0x3d,
  0x70, 0xc8, 0x40, 0x3e, 0xae, 0x65, 0x0d, 0xbf, 0x75, 0xe2, 0x53, 0x3e,
  0xf0, 0x51, 0x93, 0xbc, 0x60, 0x29, 0xce, 0x3d, 0xb0, 0x81, 0x14, 0xbf,
  0xca, 0xaf, 0x4a, 0x3d, 0x4c, 0x36, 0x47, 0x3c, 0xb1, 0x6b, 0x6f, 0x3c,
  0x0f, 0x26, 0x3d, 0x3e, 0x68, 0x84, 0x77, 0x3e, 0x6d, 0xd6, 0xb4, 0x3e,
  0xbc, 0xed, 0x54, 0xbd, 0x38, 0xfc, 0xb8, 0xbe, 0x84, 0x32, 0x07, 0x3f,
  0x10, 0x86, 0xb6, 0xbd, 0x47, 0x51, 0x93, 0x3d, 0xe9, 0xb0, 0x46, 0x3e,
  0xe7, 0x75, 0x24, 0x3e, 0x74, 0x38, 0x75, 0x3c, 0xd1, 0x95, 0x37, 0xbe,
  0x9d, 0x47, 0xfb, 0x3c, 0xc2, 0x43, 0xc2, 0xbe, 0x43, 0x7b, 0xb1, 0x3e,
  0xf8, 0x92, 0xcd, 0xbe, 0x3e, 0x4d, 0x2e, 0x3e, 0x11, 0x92, 0x03, 0xbe,
  0x41, 0xb4, 0x17, 0x3e, 0x46, 0xf2, 0x00, 0x3f, 0xfa, 0x3f, 0x26, 0x3e,
  0xbb, 0x9e, 0xd0, 0xbd, 0x61, 0x89, 0x6c, 0xbd, 0x22, 0x00, 0x2c, 0x3e,
  0x79, 0x28, 0xc3, 0x3d, 0x24, 0xd1, 0x32, 0xbe, 0x73, 0xda, 0x72, 0x3e,
  0xf3, 0x43, 0x9b, 0xbe, 0x24, 0x1c, 0xb0, 0x3d, 0x48, 0x71, 0x80, 0x3d,
  0xf1, 0xd4, 0x1b, 0x3f, 0x70, 0x4a, 0xf9, 0x3e, 0x66, 0x64, 0x7d, 0x3e,
  0x58, 0x6a, 0xbe, 0x3d, 0x80, 0xfa, 0xa4, 0xbe, 0x7a, 0x07, 0x3e, 0xbe,
  0x5f, 0x31, 0xc9, 0xbd, 0x67, 0xe4, 0xb0, 0xbd, 0x1b, 0x12, 0x2a, 0x3e,
  0xc1, 0x5e, 0x82, 0xbe, 0xe3, 0xde, 0x1f, 0x3e, 0x73, 0xb1, 0x6b, 0x3e,
  0xd8, 0x9c, 0x91, 0xbe, 0x61, 0xf4, 0xbc, 0xbe, 0x71, 0x3d, 0x42, 0xbe,
  0x3f, 0x47, 0x9d, 0x3e, 0x33, 0x68, 0xbf, 0x3e, 0x89, 0xd5, 0x37, 0x3e,
  0x45, 0x56, 0x68, 0xbe, 0xb1, 0x99, 0x70, 0xbd, 0x92, 0x02, 0xfb, 0x3d,
  0x30, 0x8e, 0x07, 0x3f, 0xfb, 0x13, 0xb3, 0x3e, 0x95, 0xa6, 0xd4, 0xbe,
  0x4a, 0x80, 0xdd, 0xbc, 0xc2, 0x1d, 0x09, 0x3e, 0x6a, 0x86, 0xa0, 0x3e,
  0x72, 0x46, 0xad, 0x3e, 0x1e, 0xcd, 0x7f, 0xbe, 0xab, 0xa9, 0xd8, 0x3e,
  0x8d, 0x74, 0x18, 0x3f, 0x2a, 0xec, 0xef, 0x3e, 0xb0, 0x6a, 0x19, 0x3f,
  0x13, 0xac, 0xf9, 0x3c, 0x2b, 0xbe, 0xaf, 0xbe, 0x40, 0x0c, 0x25, 0x3d,
  0x8e, 0x03, 0x05, 0xbf, 0x8e, 0xcb, 0x02, 0xbf, 0x04, 0xfa, 0xf5, 0xbe,
  0xf4, 0xe9, 0xaf, 0xbe, 0xd9, 0xd8, 0x9c, 0xbe, 0x15, 0xdc, 0xab, 0xbe,
  0xdd, 0xac, 0xe0, 0xbe, 0x09, 0x0a, 0x86, 0x3e, 0x5a, 0x02, 0x78, 0xbe,
  0xb0, 0x8e, 0x54, 0x3e, 0x06, 0x73, 0xcf, 0xbe, 0x29, 0x36, 0x02, 0xbe,
  0x67, 0x6b, 0xe5, 0x3e, 0xeb, 0x96, 0xa9, 0x3e, 0xe2, 0xc9, 0x88, 0xbe,
  0x64, 0xd3, 0xb5, 0xbe, 0xe4, 0x2e, 0x8a, 0xbe, 0x30, 0xe6, 0x30, 0xbd,
  0x21, 0x22, 0x2b, 0xbe, 0xb8, 0x84, 0xff, 0x3e, 0xbd, 0xcb, 0xbd, 0x3e,
  0x4b, 0x5c, 0xcc, 0x3e, 0xb0, 0x3c, 0x65, 0x3e, 0x30, 0x8d, 0x9d, 0x3e,
  0x89, 0xa8, 0x31, 0x3e, 0x96, 0xa4, 0xd3, 0xbe, 0x88, 0x95, 0x9b, 0x3d,
  0x0e, 0x5a, 0x23, 0xbe, 0x03, 0x54, 0x0b, 0x3f, 0x6d, 0x82, 0x69, 0xbc,
  0xca, 0x0a, 0xa0, 0xbe, 0x7e, 0xe5, 0xa7, 0x3d, 0x51, 0x6f, 0x08, 0xbf,
  0xff, 0x12, 0xdc, 0x3e, 0x64, 0xad, 0xaf, 0x3e, 0x7b, 0xa2, 0xd1, 0xbd,
  0xcb, 0x01, 0xf4, 0xbd, 0x4f, 0x94, 0x80, 0xbe, 0xa5, 0x7d, 0xdf, 0x3e,
  0x01, 0x1a, 0x86, 0x3e, 0xd4, 0x11, 0xd8, 0x3d, 0xed, 0xad, 0x38, 0x3e,
  0xc8, 0x2e, 0xc6, 0x3e, 0xee, 0x87, 0x7c, 0xbe, 0x85, 0x6f, 0xa7, 0x3c,
  0xf1, 0x25, 0x84, 0x3c, 0x62, 0xa1, 0x73, 0x3e, 0xe1, 0xc5, 0x4e, 0xbe,
  0x0b, 0x06, 0x89, 0x3e, 0x6e, 0xd3, 0xc8, 0x3e, 0x17, 0x2a, 0x44, 0x3e,
  0xb7, 0xd6, 0xc2, 0xb9, 0x9c, 0x97, 0x98, 0xbd, 0x00, 0xee, 0x02, 0xbd,
  0x5d, 0xc6, 0x9b, 0xbd, 0xb7, 0xdd, 0x9d, 0xbd, 0x98, 0xe3, 0xef, 0x3b,
  0xa6, 0xd6, 0xea, 0x3d, 0xb6, 0xd1, 0x19, 0x3f, 0x8d, 0x96, 0x9b, 0xbe,
  0x00, 0x9f, 0xc3, 0x3d, 0x92, 0xea, 0x92, 0x3e, 0x70, 0xe9, 0x95, 0xbe,
  0xce, 0xe3, 0x19, 0xbd, 0xd1, 0xbb, 0x0f, 0x3f, 0x8a, 0xe0, 0x8f, 0x3d,
  0x7c, 0x6c, 0x25, 0x3e, 0xa6, 0xd1, 0xd5, 0xbd, 0x59, 0x04, 0xf3, 0x3e,
  0xed, 0xea, 0x45, 0xbe, 0x78, 0xb6, 0x06, 0x3f, 0xb8, 0xec, 0x7a, 0xbe,
  0x01, 0x68, 0x36, 0x3e, 0xc8, 0x93, 0x6e, 0xbe, 0xaa, 0x12, 0xe5, 0x3d,
  0x29, 0xb5, 0xd9, 0xbd, 0x05, 0x87, 0x8f, 0x3e, 0xf9, 0x12, 0xd5, 0xbd,
  0x57, 0xb8, 0xca, 0xbd, 0x8c, 0xad, 0x61, 0x3b, 0xf1, 0xd4, 0x26, 0x3e,
  0x32, 0x04, 0x28, 0xbe, 0x97, 0xc2, 0x2f, 0x3f, 0x3f, 0xa1, 0x26, 0x3e,
  0x0e, 0x4f, 0xa5, 0x3e, 0xd3, 0xe7, 0xb5, 0xbe, 0x74, 0x30, 0x7f, 0x3e,
  0x72, 0x37, 0xb2, 0x3d, 0xc3, 0x73, 0xf2, 0x3d, 0x37, 0x25, 0xd0, 0xbc,
  0x2a, 0x2a, 0x4b, 0x3e, 0xda, 0x4b, 0x7a, 0xbd, 0xc5, 0x12, 0x71, 0x3d,
  0x26, 0x7b, 0xda, 0xbe, 0xc6, 0x00, 0x03, 0x3e, 0xb0, 0xcb, 0x99, 0x3e,
  0xbd, 0xdc, 0xf1, 0xbe, 0x6e, 0xbb, 0x83, 0x3e, 0x11, 0x90, 0x76, 0x3e,
  0x1a, 0x16, 0x2e, 0x3e, 0x64, 0x29, 0xcb, 0xbe, 0xc9, 0xbf, 0x91, 0xbe,
  0xe9, 0x38, 0x7d, 0x3e, 0x3d, 0x7f, 0xf6, 0x3d, 0x98, 0x8d, 0x4b, 0x3e,
  0xd7, 0x95, 0x71, 0xbd, 0x8d, 0xa3, 0xbd, 0xbe, 0xb2, 0xcf, 0xe6, 0x3e,
  0x8e, 0xcf, 0x0d, 0x3f, 0xea, 0xb7, 0xec, 0xbd, 0x3a, 0xfc, 0x61, 0x3e,
  0xbb, 0x21, 0x50, 0x3e, 0xfc, 0x17, 0xda, 0x3d, 0x94, 0x86, 0xaf, 0x3e,
  0xab, 0x3d, 0x39, 0x3e, 0x24, 0x04, 0x72, 0x3e, 0xf8, 0xfa, 0x70, 0xbd,
  0x90, 0xc7, 0x01, 0xbe, 0x2c, 0x80, 0xf8, 0x3e, 0xe0, 0x58, 0xe4, 0x3d,
  0xa5, 0x20, 0x42, 0x3d, 0xda, 0x93, 0x84, 0xbe, 0x65, 0xaa, 0x51, 0xbe,
  0x6c, 0x1d, 0x18, 0x3f, 0xaf, 0x24, 0x14, 0xbc, 0x38, 0xfd, 0x1c, 0x3d,
  0xd0, 0xd4, 0x09, 0x3d, 0x09, 0x3d, 0x9d, 0x3e, 0x06, 0x63, 0x21, 0xbe,
  0x8b, 0x78, 0x16, 0x3f, 0xb5, 0xe7, 0xd9, 0xbe, 0x7b, 0xd4, 0x52, 0x3e,
  0x25, 0xe4, 0x3a, 0xbe, 0xc4, 0x8e, 0x24, 0xbf, 0x6e, 0x35, 0xca, 0x3e,
  0xba, 0x89, 0x72, 0xbe, 0xcc, 0x08, 0x93, 0x3e, 0x8a, 0xb5, 0x65, 0xbc,
  0x19, 0x34, 0xb6, 0xbe, 0x26, 0xbd, 0xc4, 0x3e, 0xf0, 0xfd, 0xf2, 0x3e,
  0x14, 0xbc, 0xc1, 0x3e, 0xdc, 0x45, 0x95, 0x3e, 0xdd, 0x87, 0x68, 0x3e,
  0x79, 0x21, 0xc4, 0x3d, 0x6f, 0xe0, 0x08, 0x3f, 0xd9, 0x04, 0x9b, 0xbe,
  0x34, 0x06, 0x85, 0x3d, 0xd6, 0xf1, 0x20, 0x3f, 0x52, 0x3b, 0x65, 0x3e,
  0x77, 0x2e, 0x11, 0xbf, 0x4d, 0x79, 0x4e, 0xbe, 0x22, 0x9e, 0xa3, 0x3e,
  0x6e, 0x5c, 0x52, 0x3e, 0x3c, 0xa1, 0x06, 0xbe, 0xce, 0x1b, 0x89, 0x3e,
  0x6f, 0x72, 0x72, 0xbe, 0x33, 0xcb, 0xac, 0xbe, 0x92, 0xa7, 0x0d, 0xbe,
  0xfe, 0x7d, 0x3d, 0xbd, 0x08, 0xc0, 0x88, 0xbe, 0xd6, 0xed, 0x3f, 0x3e,
  0xda, 0x19, 0xcd, 0x3c, 0x58, 0x13, 0x15, 0x3f, 0x00, 0x03, 0x07, 0xbc,
  0x08, 0x7c, 0xce, 0xbd, 0x28, 0xf2, 0x8f, 0xbd, 0x1f, 0x24, 0x2e, 0xbe,
  0x28, 0xd6, 0xcc, 0x3d, 0x58, 0x9b, 0x5d, 0xbd, 0xec, 0x5f, 0xa9, 0x3d,
  0xd6, 0x4d, 0xf7, 0xbd, 0xb7, 0x80, 0x0b, 0xbe, 0x8d, 0xec, 0x67, 0xbe,
  0x10, 0x1c, 0x27, 0x3d, 0x43, 0x23, 0x8a, 0xbe, 0x57, 0x76, 0x89, 0x3e,
  0x81, 0x78, 0x27, 0xbe, 0x00, 0xa3, 0xf8, 0xbb, 0x08, 0xbb, 0x3b, 0xbd,
  0x00, 0x96, 0x57, 0xbe, 0x91, 0xcd, 0x9c, 0x3e, 0x65, 0x88, 0xe2, 0x3e,
  0xd4, 0xb7, 0xf6, 0xbd, 0xf8, 0xef, 0x98, 0x3d, 0xbe, 0xe5, 0xf6, 0x3e,
  0x67, 0x28, 0x45, 0xbe, 0x3e, 0x6b, 0xad, 0x3e, 0xbf, 0xed, 0xe4, 0xbe,
  0x00, 0x6d, 0xeb, 0x3e, 0x3c, 0x87, 0x9a, 0xbe, 0x64, 0xa2, 0x35, 0xbe,
  0xdf, 0x31, 0x90, 0x3e, 0xde, 0x40, 0x41, 0x3e, 0x42, 0x5c, 0x0d, 0x3e,
  0xf8, 0xb9, 0xdd, 0xbd, 0xa0, 0x28, 0x77, 0x3c, 0x28, 0xea, 0xb4, 0xbe,
  0x8f, 0x00, 0xab, 0xbe, 0x29, 0x99, 0x5a, 0xbe, 0x55, 0xd8, 0x82, 0x3e,
  0x08, 0xa3, 0x06, 0xbd, 0x10, 0x49, 0xd5, 0x3d, 0x68, 0x65, 0x92, 0xbd,
  0xd0, 0xe8, 0xc9, 0xbc, 0x69, 0xf3, 0x00, 0xbe, 0xde, 0x6d, 0x0b, 0xbe,
  0x08, 0xe3, 0xfc, 0x3d, 0xb7, 0x69, 0x93, 0x3e, 0x45, 0xbd, 0x59, 0xbe,
  0x7a, 0x1b, 0x91, 0xbe, 0x9c, 0x6a, 0xe5, 0xbd, 0x76, 0x22, 0x63, 0x3e,
  0x92, 0xbd, 0x85, 0x3d, 0x87, 0x6c, 0xd0, 0xbe, 0x4b, 0xed, 0x04, 0xbe,
  0x89, 0xce, 0x8a, 0xbe, 0x72, 0xb7, 0x4f, 0xbe, 0xeb, 0x49, 0x59, 0xbd,
  0xd3, 0xad, 0xcb, 0xbd, 0xee, 0xc5, 0xbb, 0x3e, 0x09, 0x36, 0x93, 0x3e,
  0x21, 0x26, 0x08, 0x3e, 0x03, 0x1f, 0x4b, 0x3e, 0xa4, 0xaa, 0x04, 0xbf,
  0xec, 0xd5, 0xd3, 0x3e, 0xe8, 0x41, 0x07, 0x3f, 0x63, 0xf9, 0x60, 0xbe,
  0x54, 0x60, 0x0d, 0xbe, 0x86, 0xfc, 0x8b, 0x3e, 0xbb, 0x8b, 0xef, 0xbe,
  0x33, 0x96, 0xae, 0xbe, 0x9c, 0xb7, 0xa2, 0x3d, 0xcf, 0xc5, 0x61, 0x3e,
  0xe0, 0xe1, 0x5f, 0xbd, 0x39, 0x75, 0x45, 0xbc, 0xc1, 0x97, 0xd1, 0xbe,
  0x9b, 0x05, 0x7c, 0xbe, 0x51, 0xe2, 0x81, 0x3e, 0x4b, 0x5d, 0xd1, 0x3c,
  0x1a, 0x5a, 0x86, 0x3e, 0xc5, 0x15, 0xf5, 0x3e, 0x2f, 0xb3, 0xe8, 0x3e,
  0xbd, 0xdd, 0xeb, 0xbd, 0x24, 0xbb, 0x24, 0xbc, 0x98, 0x9f, 0x82, 0xbd,
  0x3b, 0xb0, 0x48, 0x3e, 0x00, 0x71, 0x91, 0xba, 0x85, 0x57, 0xb2, 0x3e,
  0xd3, 0xfc, 0xed, 0x3e, 0x0f, 0xf9, 0x0b, 0xbe, 0x71, 0x5a, 0x58, 0x3e,
  0xf1, 0xf4, 0xd2, 0xbe, 0x28, 0xa5, 0xc5, 0x3e, 0xf9, 0xc7, 0x7c, 0x3d,
  0x58, 0x5f, 0xdb, 0xbb, 0xf2, 0x08, 0xee, 0x3e, 0x8e, 0xb4, 0xd1, 0xbd,
  0xa7, 0x0b, 0xd4, 0x3e, 0x40, 0xbf, 0x31, 0x3e, 0xb4, 0x2d, 0xc7, 0x3e,
  0x72, 0x82, 0xb9, 0x3e, 0x7c, 0x5b, 0x9c, 0xbe, 0xc5, 0xe7, 0xa1, 0x3e,
  0xbe, 0x3e, 0x74, 0xbe, 0x0d, 0x5a, 0x95, 0xbe, 0x37, 0x2c, 0xaf, 0xbe,
  0x3e, 0x73, 0xb8, 0xbd, 0xc2, 0xdb, 0xaf, 0xbe, 0x3a, 0xad, 0x3b, 0x3e,
  0x06, 0x56, 0xab, 0xbe, 0x80, 0x5c, 0x53, 0x3e, 0x08, 0x73, 0x98, 0x3e,
  0x41, 0xb8, 0x05, 0x3f, 0x58, 0x84, 0x1b, 0x3c, 0xd6, 0x46, 0x91, 0x3c,
  0x6c, 0x1d, 0xd4, 0xbe, 0xb4, 0xa3, 0xcf, 0xbe, 0x05, 0x17, 0x13, 0x3f,
  0x8a, 0x6f, 0x50, 0x3e, 0x44, 0x9c, 0x35, 0x3e, 0x56, 0x57, 0xd2, 0x3d,
  0x3f, 0x36, 0xb6, 0x3e, 0x61, 0x4f, 0xa5, 0x3e, 0x7e, 0xe3, 0x32, 0x3e,
  0x65, 0x74, 0xe3, 0xbd, 0x2c, 0xc2, 0x87, 0x3d, 0x7c, 0x31, 0xd9, 0x3d,
  0x9e, 0x23, 0x14, 0x3e, 0x52, 0x0d, 0xb3, 0x3e, 0x18, 0x6f, 0x48, 0xbe,
  0xb5, 0x1b, 0x61, 0x3e, 0x52, 0x73, 0x91, 0x3e, 0xd5, 0xa6, 0x85, 0xbe,
  0x51, 0xdd, 0x00, 0xbe, 0x98, 0x1b, 0x89, 0xbe, 0x47, 0xe4, 0xa8, 0x3e,
  0x68, 0x61, 0x7f, 0xbe, 0xb5, 0x69, 0x7b, 0x3b, 0x91, 0x23, 0x09, 0xbe,
  0x79, 0xb5, 0x12, 0x3f, 0xbf, 0xd7, 0xb7, 0x3d, 0x7b, 0x96, 0x4a, 0xbe,
  0x33, 0xb5, 0x84, 0x3e, 0x6d, 0xc1, 0x9e, 0xbe, 0x06, 0x18, 0xc4, 0xbe,
  0x45, 0xe2, 0x6c, 0x3e, 0x9b, 0x00, 0x02, 0x3f, 0xf6, 0x12, 0x03, 0x3e,
  0x17, 0x8d, 0x85, 0xbe, 0xeb, 0x2f, 0xac, 0xbe, 0x4e, 0xbb, 0x5a, 0x3e,
  0x13, 0x5b, 0xb4, 0x3e, 0x2a, 0x63, 0x14, 0x3e, 0x09, 0x10, 0x33, 0xbd,
  0x58, 0x50, 0x41, 0x3e, 0xdb, 0x49, 0x6d, 0xbe, 0x0a, 0x4b, 0x3f, 0x3e,
  0x9a, 0xb2, 0x82, 0x3e, 0x96, 0x27, 0x43, 0xbe, 0x31, 0x3c, 0xad, 0x3e,
  0xbf, 0xec, 0xa5, 0xbe, 0x21, 0xb7, 0xe6, 0xbd, 0xa2, 0xfe, 0x85, 0x3d,
  0x01, 0x13, 0x38, 0xbe, 0x2f, 0x49, 0xa7, 0x3e, 0x03, 0xce, 0x90, 0x3d,
  0x10, 0x6f, 0x2b, 0x3d, 0x11, 0x2c, 0x15, 0xbe, 0xb9, 0x44, 0x47, 0xbd,
  0x04, 0x01, 0xe6, 0x3e, 0xea, 0x1c, 0x99, 0x3e, 0x4f, 0xca, 0x99, 0x3e,
  0x88, 0xf0, 0xc1, 0x3e, 0x2b, 0xb9, 0x1e, 0x3e, 0x91, 0x63, 0x34, 0xbe,
  0x3c, 0x00, 0xaf, 0x3e, 0x81, 0x78, 0xa5, 0xbe, 0xca, 0xae, 0xdb, 0xbd,
  0x1d, 0xc8, 0x87, 0xbe, 0x7b, 0x9f, 0x6d, 0x3e, 0x3c, 0x6a, 0xf4, 0x3e,
  0xe4, 0xda, 0x39, 0xbe, 0x04, 0x64, 0xac, 0xbd, 0x70, 0x3e, 0xb6, 0x3d,
  0x50, 0x04, 0x96, 0xbe, 0x86, 0x2e, 0xb5, 0xbe, 0x68, 0xd0, 0x42, 0xbe,
  0xea, 0xc4, 0x16, 0x3e, 0x18, 0x61, 0x90, 0xbe, 0x47, 0x35, 0x52, 0x3e,
  0x16, 0x83, 0xb9, 0x3e, 0x5b, 0x3b, 0x50, 0x3d, 0xf8, 0x3b, 0x9b, 0x3e,
  0x46, 0x40, 0x37, 0x3e, 0x6c, 0x10, 0xb8, 0x3e, 0x33, 0xcb, 0xa9, 0x3e,
  0x30, 0xa2, 0xff, 0x3e, 0xc2, 0xab, 0x1d, 0xbe, 0x5d, 0xf4, 0x25, 0xbe,
  0x9e, 0xea, 0xd0, 0x39, 0x92, 0xc4, 0xd1, 0xbd, 0xc1, 0x46, 0x14, 0xbe,
  0x59, 0x97, 0xec, 0xbd, 0x2d, 0xba, 0xbf, 0x3e, 0x5a, 0xef, 0x15, 0x3f,
  0xe3, 0xff, 0x5a, 0x3e, 0x78, 0x9a, 0x12, 0x3e, 0xc5, 0xa7, 0xa9, 0xbe,
  0x99, 0xd9, 0xd5, 0x3e, 0xa7, 0x94, 0x02, 0xbf, 0xf2, 0x49, 0xf3, 0xbe,
  0x0b, 0x99, 0x9b, 0xbe, 0x19, 0x1e, 0xec, 0x3e, 0x14, 0x76, 0xe8, 0xbd,
  0xe0, 0xd9, 0x75, 0x3a, 0x09, 0x03, 0xb8, 0x3d, 0x3c, 0x39, 0x60, 0x3e,
  0x12, 0xd7, 0x0c, 0x3f, 0xa9, 0xd7, 0x0f, 0x3e, 0xef, 0x87, 0x79, 0xbe,
  0x99, 0x66, 0xd3, 0x3e, 0x26, 0x7b, 0x74, 0xbe, 0x49, 0x24, 0x11, 0xbe,
  0x53, 0x55, 0x18, 0x3f, 0x33, 0x12, 0x24, 0x3b, 0x1a, 0x1e, 0xe1, 0x3e,
  0x1f, 0xba, 0xf7, 0xbc, 0x0a, 0x43, 0x1c, 0x3f, 0xfa, 0x66, 0x03, 0x3f,
  0x7a, 0xf5, 0xd2, 0x3e, 0xb8, 0xeb, 0x43, 0x3d, 0x98, 0x98, 0x60, 0xbe,
  0xf2, 0x45, 0xf2, 0x3e, 0x95, 0x8a, 0x2d, 0x3f, 0x1a, 0xa8, 0x47, 0xbe,
  0x80, 0x8d, 0x44, 0x3e, 0x82, 0x20, 0x11, 0x3e, 0x2e, 0xea, 0x1b, 0x3e,
  0x4d, 0xd8, 0x6a, 0x3d, 0xe9, 0xe8, 0xdc, 0x3e, 0x98, 0xd1, 0x06, 0xbf,
  0x15, 0x4c, 0x1c, 0xbe, 0x50, 0x6e, 0x6f, 0x3d, 0x62, 0xfa, 0xff, 0xff,
  0x04, 0x00, 0x00, 0x00, 0x00, 0x05, 0x00, 0x00, 0x11, 0x5b, 0x59, 0xbf,
  0xf4, 0x74, 0x63, 0xbe, 0xf4, 0x80, 0x9d, 0x3e, 0x5d, 0x12, 0x85, 0xb9,
  0x38, 0xa3, 0x32, 0xbf, 0x03, 0x8c, 0x43, 0xbf, 0x50, 0xb5, 0xc1, 0x3e,
  0xd9, 0x90, 0x44, 0xbe, 0x99, 0x5a, 0x4a, 0x3e, 0xf3, 0x75, 0x7a, 0xbf,
  0x17, 0x72, 0x0c, 0xbf, 0x79, 0x6b, 0xa2, 0x3e, 0x67, 0x58, 0xc7, 0x3e,
  0x8e, 0x05, 0x6d, 0x3e, 0x10, 0x89, 0x12, 0xbc, 0x51, 0x2a, 0x15, 0xbf,
  0xac, 0x20, 0x28, 0x3f, 0x98, 0x24, 0x87, 0x3d, 0xf6, 0x4f, 0x0d, 0xbf,
  0xbf, 0x86, 0xbd, 0x3e, 0x27, 0x70, 0x1e, 0xbf, 0xf8, 0x86, 0x5a, 0xbe,
  0xe4, 0xbe, 0x1e, 0xbd, 0xfd, 0x6f, 0xb0, 0xbe, 0x10, 0x26, 0x83, 0x3e,
  0xf5, 0x4c, 0xea, 0x3e, 0x05, 0x66, 0x6a, 0xbd, 0xeb, 0x0f, 0x41, 0xbc,
  0x52, 0x85, 0x10, 0x3f, 0x69, 0x4b, 0x1a, 0xbf, 0x71, 0xf4, 0x91, 0xbd,
  0x25, 0x3f, 0x14, 0x3f, 0xef, 0x18, 0x05, 0xbf, 0x19, 0x88, 0x3d, 0x3c,
  0xc7, 0x11, 0xc6, 0xbe, 0xb7, 0x1f, 0x1b, 0x3f, 0xda, 0x0b, 0xe3, 0xbd,
  0x57, 0x71, 0x07, 0xbd, 0x23, 0x82, 0x14, 0x3e, 0xab, 0xa6, 0x66, 0xbf,
  0x70, 0xcc, 0xef, 0x3e, 0xd7, 0xc3, 0x43, 0x3d, 0x73, 0xba, 0xd9, 0x3e,
  0x1b, 0x80, 0xab, 0x3e, 0x68, 0xb7, 0x06, 0x3f, 0x9a, 0x03, 0x77, 0xbd,
  0x8b, 0xd1, 0x13, 0xbf, 0xd2, 0xe3, 0x14, 0xbf, 0x8d, 0x8c, 0x41, 0xbe,
  0x4a, 0x27, 0x00, 0xbe, 0x5d, 0xc9, 0xa7, 0xbe, 0xa4, 0x49, 0x8d, 0xbd,
  0x6d, 0x58, 0x32, 0x3e, 0x3d, 0x9f, 0x46, 0xbe, 0x35, 0xd8, 0x18, 0xbe,
  0x37, 0x91, 0x49, 0xbc, 0x15, 0x6c, 0x2c, 0xbe, 0xa5, 0x02, 0x44, 0xbe,
  0x14, 0xf5, 0xb1, 0xbe, 0x5d, 0x75, 0xb7, 0x3e, 0xb3, 0x80, 0xc3, 0x3e,
  0xd7, 0xfa, 0xdf, 0xbd, 0x34, 0x30, 0xeb, 0x3e, 0xec, 0xf6, 0x9c, 0x3e,
  0xe8, 0x59, 0xa6, 0xbd, 0xea, 0xca, 0x64, 0xbe, 0x94, 0xb6, 0x08, 0x3d,
  0x4b, 0x9e, 0xb2, 0xbd, 0x11, 0xac, 0x0e, 0x3f, 0x1d, 0xd5, 0x63, 0xbe,
  0x20, 0xd9, 0x2e, 0x3f, 0x19, 0x08, 0x01, 0x3f, 0x79, 0x2a, 0xa5, 0x3e,
  0x8a, 0x0e, 0x6a, 0xbf, 0x00, 0xba, 0xb6, 0xbe, 0x31, 0xcc, 0x9f, 0xbe,
  0x7c, 0x8b, 0x3b, 0xbe, 0x0c, 0xcf, 0x0d, 0x3d, 0xaf, 0x84, 0xbc, 0xbe,
  0xa1, 0x4d, 0xa9, 0xbc, 0x32, 0x33, 0x64, 0xbe, 0x1d, 0x23, 0x9d, 0xbe,
  0xa3, 0x97, 0x34, 0xbf, 0xf1, 0xbf, 0xa6, 0x3e, 0xa8, 0xff, 0xbe, 0x3e,
  0x79, 0xd3, 0x31, 0xbe, 0xda, 0xc8, 0x10, 0xbf, 0xc8, 0x78, 0x29, 0xbf,
  0xfa, 0x11, 0x5e, 0xbe, 0x07, 0x5d, 0x68, 0x3e, 0x62, 0xdb, 0x7e, 0x3e,
  0x2e, 0xdd, 0x0b, 0x3f, 0xbd, 0x53, 0x9e, 0xbe, 0x94, 0x53, 0x0d, 0x3f,
  0x22, 0x16, 0x61, 0xbe, 0x39, 0xf6, 0x9c, 0x3e, 0xc1, 0x8b, 0x0a, 0xbd,
  0x65, 0x3b, 0xfe, 0x39, 0x7f, 0x60, 0x31, 0xbf, 0x16, 0xb0, 0x99, 0x3e,
  0x15, 0x5e, 0x06, 0xbe, 0x9c, 0x64, 0x01, 0x3f, 0x5d, 0x21, 0x74, 0x3e,
  0x4a, 0x33, 0x9e, 0xbe, 0x25, 0xee, 0x5c, 0x3c, 0xe3, 0xc1, 0xf8, 0x3d,
  0xbe, 0x6e, 0x92, 0xbe, 0x3c, 0x3b, 0xc6, 0x3e, 0x63, 0xad, 0x44, 0x3e,
  0x8f, 0x6e, 0xcb, 0x3e, 0x11, 0x80, 0x18, 0x3f, 0x21, 0x7c, 0x7a, 0x3e,
  0xa3, 0x64, 0x01, 0xbf, 0xfa, 0xc7, 0x24, 0xbe, 0x74, 0x47, 0x45, 0x3e,
  0x9d, 0x6c, 0x99, 0x3e, 0x01, 0x5c, 0xae, 0xbd, 0x5d, 0x7b, 0x56, 0xbf,
  0xca, 0xbd, 0x82, 0xbd, 0x46, 0x8e, 0x03, 0xbf, 0x72, 0xd5, 0xf7, 0x3e,
  0xa0, 0x1c, 0x47, 0x3e, 0x8d, 0xc2, 0xcd, 0xbe, 0x03, 0xb5, 0x85, 0x3e,
  0x5e, 0x2f, 0x0e, 0xbe, 0x1c, 0x24, 0x2b, 0xbe, 0xb8, 0xd0, 0x99, 0xbe,
  0x04, 0x37, 0xad, 0xbc, 0x93, 0x27, 0xd8, 0xbd, 0xa9, 0xc6, 0xa7, 0xbe,
  0xe3, 0x64, 0x10, 0xbd, 0xfc, 0xc8, 0x8c, 0x3d, 0x7a, 0x31, 0x4b, 0xbf,
  0x57, 0xf8, 0x80, 0xbe, 0x87, 0xed, 0x1a, 0x3d, 0x40, 0x2b, 0xe0, 0x3d,
  0x09, 0x5c, 0x8d, 0x3e, 0x7f, 0xea, 0x00, 0x3d, 0x0b, 0xd5, 0x99, 0xbe,
  0xfa, 0xaf, 0x32, 0xbe, 0x1e, 0x6e, 0x5e, 0xbd, 0x00, 0x80, 0xb9, 0xbe,
  0x6d, 0x31, 0x7c, 0xbe, 0xc6, 0x1b, 0x14, 0xbf, 0xb4, 0x5b, 0x07, 0x3f,
  0xc0, 0xb6, 0x2c, 0xbd, 0x5e, 0x58, 0x99, 0x3e, 0x83, 0xba, 0x9f, 0xbe,
  0x2d, 0x40, 0xb6, 0x3e, 0x41, 0x5f, 0x2b, 0x3f, 0x9f, 0x46, 0xbb, 0x3e,
  0x5b, 0x21, 0xff, 0x3c, 0xfc, 0x66, 0x16, 0xbf, 0x96, 0x5a, 0x00, 0xbf,
  0x2a, 0xcd, 0x10, 0xbf, 0x2d, 0xfc, 0x02, 0xbf, 0x35, 0x26, 0xc0, 0x3e,
  0xf3, 0x65, 0x8b, 0x3e, 0xd9, 0x6f, 0x06, 0xbd, 0xe5, 0x31, 0x66, 0xbe,
  0x04, 0x20, 0xd5, 0x3e, 0xec, 0xa4, 0xc0, 0xbe, 0x23, 0x07, 0xa1, 0x3e,
  0x90, 0x81, 0xc9, 0xbe, 0x51, 0x2d, 0xc4, 0xbe, 0x8f, 0x63, 0x1b, 0xbe,
  0xd4, 0x03, 0x4e, 0x3d, 0x58, 0x5f, 0xa0, 0x3e, 0x20, 0x90, 0xcd, 0xbe,
  0x80, 0x33, 0x70, 0xbe, 0xf2, 0x43, 0xc3, 0xbd, 0x6b, 0x7a, 0x15, 0x3e,
  0x45, 0xca, 0xe1, 0xbd, 0x4e, 0x7f, 0x93, 0x3e, 0x8c, 0x70, 0x26, 0xbe,
  0x68, 0x1e, 0x57, 0x3e, 0x2d, 0xb7, 0x59, 0xbe, 0xac, 0x09, 0xe3, 0xbd,
  0xa3, 0x78, 0xc7, 0x3e, 0x10, 0x35, 0xca, 0xbc, 0xa8, 0x85, 0x7c, 0xbd,
  0x69, 0xb7, 0x25, 0xbc, 0x18, 0x81, 0xc5, 0x3e, 0xc2, 0x8b, 0x02, 0xbf,
  0x15, 0x9a, 0xe2, 0x3e, 0x7b, 0x0f, 0x71, 0x3e, 0xa1, 0xa0, 0x1a, 0x3d,
  0xa9, 0xd6, 0x2f, 0x3e, 0x65, 0x14, 0xd8, 0xbe, 0x0f, 0x9b, 0x15, 0xbf,
  0x7b, 0x7f, 0xa4, 0x3e, 0xc5, 0x47, 0x35, 0xbe, 0x84, 0xd1, 0xb1, 0xbe,
  0xc1, 0xff, 0x05, 0x3d, 0x6d, 0x58, 0x4d, 0x3e, 0xad, 0x08, 0x21, 0x3b,
  0x36, 0x36, 0x9b, 0xbe, 0x15, 0xb7, 0x09, 0xbe, 0xb9, 0xb4, 0xb2, 0xbd,
  0xce, 0x27, 0x16, 0xbf, 0xf6, 0xf4, 0x17, 0xbf, 0x3f, 0xca, 0xdd, 0xbe,
  0x2f, 0x3e, 0xca, 0x3e, 0x77, 0x8a, 0xc4, 0xbd, 0xd6, 0xa9, 0xd6, 0x3d,
  0xe0, 0x52, 0x27, 0xbf, 0xf8, 0xcb, 0x26, 0xbf, 0x85, 0xa2, 0xa9, 0xbe,
  0x38, 0x3b, 0x20, 0xbe, 0x63, 0xfd, 0x37, 0xbe, 0x2a, 0xa5, 0xe8, 0x3e,
  0xd0, 0x54, 0xd8, 0xbd, 0x59, 0x23, 0x27, 0xbe, 0x0e, 0xcd, 0xc1, 0xbe,
  0xee, 0x28, 0x99, 0x3e, 0x96, 0x2f, 0xa1, 0x3e, 0xf2, 0x6f, 0x80, 0xbe,
  0x05, 0xa6, 0xdf, 0xbe, 0xc1, 0x00, 0xbd, 0x3e, 0xaf, 0x99, 0x03, 0x3e,
  0xf3, 0x26, 0xe6, 0xbe, 0x73, 0x00, 0xdc, 0x3d, 0xe7, 0x3d, 0xe8, 0x3e,
  0x75, 0xe1, 0xd0, 0x3e, 0x0a, 0xfa, 0xd8, 0xbd, 0xe3, 0x48, 0x95, 0xbe,
  0x5e, 0x99, 0xa7, 0x3e, 0x84, 0xc0, 0x25, 0x3e, 0xcc, 0x32, 0x85, 0xbe,
  0x74, 0x90, 0x28, 0x3e, 0x4b, 0xf8, 0xbe, 0xbe, 0xed, 0xdf, 0x43, 0xbe,
  0x80, 0x7d, 0xc1, 0x3d, 0xd5, 0xc9, 0x4c, 0xbd, 0xc9, 0x5f, 0x0a, 0xbc,
  0xc7, 0x34, 0x29, 0xbf, 0x38, 0xa3, 0x15, 0xbf, 0xc6, 0x36, 0xb3, 0x3e,
  0xad, 0x78, 0x1c, 0x3f, 0xd8, 0x95, 0x4e, 0x3e, 0xf7, 0xe9, 0x99, 0xbe,
  0xe0, 0x33, 0x30, 0xbd, 0x67, 0xac, 0x56, 0xbe, 0xaa, 0xe1, 0x95, 0xbe,
  0x33, 0x17, 0x8d, 0xbd, 0x29, 0x19, 0xfc, 0xbd, 0x1b, 0x6e, 0xef, 0xbe,
  0x07, 0xd8, 0xfc, 0x3e, 0x7b, 0x08, 0xba, 0x3d, 0x90, 0xa4, 0xbf, 0xbe,
  0x90, 0xb4, 0xde, 0xbe, 0xce, 0x26, 0x8a, 0xbd, 0x83, 0x08, 0xac, 0x3e,
  0x99, 0xa0, 0xca, 0x3e, 0x90, 0xb9, 0x2e, 0x3e, 0xe7, 0x05, 0x0c, 0xbf,
  0x4b, 0x89, 0x57, 0xbe, 0x12, 0xcd, 0x91, 0xbe, 0x97, 0x85, 0xaa, 0x3e,
  0x50, 0x74, 0x27, 0xbf, 0xda, 0xc0, 0x8d, 0x3e, 0x6e, 0xe5, 0x0b, 0xbd,
  0x79, 0x22, 0x13, 0xbf, 0xf1, 0x27, 0xbc, 0x3e, 0x7a, 0xd5, 0xc6, 0x3c,
  0xef, 0xc0, 0x1c, 0xbf, 0x7c, 0x94, 0xc1, 0xbe, 0x7f, 0x71, 0xc6, 0x3d,
  0x4a, 0xca, 0xe6, 0xbe, 0x8b, 0x56, 0x03, 0x3e, 0x08, 0xe7, 0x0f, 0xbe,
  0xf8, 0xef, 0x4e, 0xbe, 0x43, 0x52, 0x4a, 0x3e, 0x2f, 0x05, 0x27, 0xbe,
  0x85, 0x79, 0x02, 0xbe, 0x5e, 0xb7, 0x89, 0xbe, 0x38, 0x8d, 0xbc, 0x3d,
  0xca, 0xa9, 0x61, 0xbf, 0xcc, 0x8f, 0x5d, 0xbc, 0x7f, 0x52, 0x1f, 0x3e,
  0x31, 0x20, 0x24, 0xbf, 0x20, 0x05, 0x97, 0x3e, 0x02, 0xd0, 0x0c, 0xbf,
  0xb9, 0x69, 0x86, 0x3e, 0x90, 0xa0, 0x70, 0x3e, 0xf2, 0x75, 0x63, 0x3e,
  0x85, 0x00, 0x18, 0x3b, 0x40, 0x4c, 0x32, 0x3e, 0x9f, 0x3d, 0xa5, 0x3e,
  0x23, 0x01, 0xbb, 0x3e, 0x66, 0x4b, 0xaa, 0x3c, 0x96, 0x20, 0xe2, 0x3d,
  0xbe, 0xe3, 0x52, 0x3d, 0x59, 0x1c, 0xcf, 0xbd, 0xde, 0xc0, 0x85, 0xbe,
  0x06, 0x54, 0xc4, 0x3e, 0xae, 0xe3, 0x72, 0x3e, 0x44, 0xd1, 0x93, 0xbe,
  0xf2, 0xef, 0x99, 0xbe, 0xd7, 0x9f, 0x0d, 0x3f, 0x55, 0x3a, 0xb8, 0x3e,
  0xb0, 0x93, 0xb7, 0x3e, 0xd3, 0x63, 0x51, 0xbe, 0x42, 0x1f, 0x26, 0xbc,
  0x41, 0x1d, 0xa2, 0x3e, 0xb8, 0x90, 0xcc, 0xbd, 0xb3, 0x9b, 0x11, 0xbf,
  0x98, 0xc0, 0xf8, 0xbd, 0x6e, 0xe6, 0x63, 0x3e, 0x6c, 0xdc, 0x81, 0x3e,
  0x69, 0x5b, 0x2c, 0xbd, 0xc3, 0x07, 0xd5, 0xbe, 0x9c, 0x59, 0x1f, 0xbe,
  0x51, 0x5a, 0x11, 0x3f, 0x17, 0x48, 0x9c, 0xbe, 0xd7, 0xa8, 0x34, 0xbf,
  0xaf, 0x67, 0x85, 0x3e, 0xc4, 0x89, 0x24, 0xbf, 0xc8, 0x90, 0xa4, 0xbe,
  0x6c, 0x5d, 0x95, 0xbe, 0xa0, 0xf5, 0xff, 0xff, 0xa4, 0xf5, 0xff, 0xff,
  0x0f, 0x00, 0x00, 0x00, 0x4d, 0x4c, 0x49, 0x52, 0x20, 0x43, 0x6f, 0x6e,
  0x76, 0x65, 0x72, 0x74, 0x65, 0x64, 0x2e, 0x00, 0x01, 0x00, 0x00, 0x00,
  0x14, 0x00, 0x00, 0x00, 0x00, 0x00, 0x0e, 0x00, 0x18, 0x00, 0x14, 0x00,
  0x10, 0x00, 0x0c, 0x00, 0x08, 0x00, 0x04, 0x00, 0x0e, 0x00, 0x00, 0x00,
  0x14, 0x00, 0x00, 0x00, 0x1c, 0x00, 0x00, 0x00, 0x10, 0x02, 0x00, 0x00,
  0x14, 0x02, 0x00, 0x00, 0x18, 0x02, 0x00, 0x00, 0x04, 0x00, 0x00, 0x00,
  0x6d, 0x61, 0x69, 0x6e, 0x00, 0x00, 0x00, 0x00, 0x07, 0x00, 0x00, 0x00,
  0xa8, 0x01, 0x00, 0x00, 0x44, 0x01, 0x00, 0x00, 0xf0, 0x00, 0x00, 0x00,
  0xc8, 0x00, 0x00, 0x00, 0x78, 0x00, 0x00, 0x00, 0x40, 0x00, 0x00, 0x00,
  0x04, 0x00, 0x00, 0x00, 0xe2, 0xfe, 0xff, 0xff, 0x1c, 0x00, 0x00, 0x00,
  0x00, 0x00, 0x00, 0x09, 0x1c, 0x00, 0x00, 0x00, 0x20, 0x00, 0x00, 0x00,
  0x04, 0x00, 0x00, 0x00, 0x00, 0x00, 0x06, 0x00, 0x08, 0x00, 0x04, 0x00,
  0x06, 0x00, 0x00, 0x00, 0x00, 0x00, 0x80, 0x3f, 0x01, 0x00, 0x00, 0x00,
  0x10, 0x00, 0x00, 0x00, 0x01, 0x00, 0x00, 0x00, 0x0f, 0x00, 0x00, 0x00,
  0x1a, 0xff, 0xff, 0xff, 0x14, 0x00, 0x00, 0x00, 0x00, 0x00, 0x00, 0x08,
  0x10, 0x00, 0x00, 0x00, 0x14, 0x00, 0x00, 0x00, 0x03, 0x00, 0x00, 0x00,
  0x68, 0xf6, 0xff, 0xff, 0x01, 0x00, 0x00, 0x00, 0x0f, 0x00, 0x00, 0x00,
  0x03, 0x00, 0x00, 0x00, 0x0e, 0x00, 0x00, 0x00, 0x01, 0x00, 0x00, 0x00,
  0x04, 0x00, 0x00, 0x00, 0x4e, 0xff, 0xff, 0xff, 0x1c, 0x00, 0x00, 0x00,
  0x00, 0x00, 0x00, 0x08, 0x1c, 0x00, 0x00, 0x00, 0x20, 0x00, 0x00, 0x00,
  0x03, 0x00, 0x00, 0x00, 0x00, 0x00, 0x06, 0x00, 0x08, 0x00, 0x07, 0x00,
  0x06, 0x00, 0x00, 0x00, 0x00, 0x00, 0x00, 0x01, 0x01, 0x00, 0x00, 0x00,
  0x0e, 0x00, 0x00, 0x00, 0x03, 0x00, 0x00, 0x00, 0x0d, 0x00, 0x00, 0x00,
  0x02, 0x00, 0x00, 0x00, 0x05, 0x00, 0x00, 0x00, 0x00, 0x00, 0x0a, 0x00,
  0x10, 0x00, 0x0c, 0x00, 0x08, 0x00, 0x04, 0x00, 0x0a, 0x00, 0x00, 0x00,
  0x0c, 0x00, 0x00, 0x00, 0x10, 0x00, 0x00, 0x00, 0x02, 0x00, 0x00, 0x00,
  0x01, 0x00, 0x00, 0x00, 0x0d, 0x00, 0x00, 0x00, 0x02, 0x00, 0x00, 0x00,
  0x0c, 0x00, 0x00, 0x00, 0x03, 0x00, 0x00, 0x00, 0x5e, 0xff, 0xff, 0xff,
  0x10, 0x00, 0x00, 0x00, 0x00, 0x00, 0x00, 0x01, 0x1c, 0x00, 0x00, 0x00,
  0x20, 0x00, 0x00, 0x00, 0x50, 0xff, 0xff, 0xff, 0x00, 0x00, 0x00, 0x01,
  0x01, 0x00, 0x00, 0x00, 0x01, 0x00, 0x00, 0x00, 0x00, 0x00, 0x00, 0x01,
  0x01, 0x00, 0x00, 0x00, 0x0c, 0x00, 0x00, 0x00, 0x03, 0x00, 0x00, 0x00,
  0x0b, 0x00, 0x00, 0x00, 0x09, 0x00, 0x00, 0x00, 0x07, 0x00, 0x00, 0x00,
  0x00, 0x00, 0x0e, 0x00, 0x1a, 0x00, 0x14, 0x00, 0x10, 0x00, 0x0c, 0x00,
  0x0b, 0x00, 0x04, 0x00, 0x0e, 0x00, 0x00, 0x00, 0x24, 0x00, 0x00, 0x00,
  0x00, 0x00, 0x00, 0x05, 0x34, 0x00, 0x00, 0x00, 0x38, 0x00, 0x00, 0x00,
  0x01, 0x00, 0x00, 0x00, 0x00, 0x00, 0x0e, 0x00, 0x18, 0x00, 0x17, 0x00,
  0x10, 0x00, 0x0c, 0x00, 0x08, 0x00, 0x04, 0x00, 0x0e, 0x00, 0x00, 0x00,
  0x02, 0x00, 0x00, 0x00, 0x02, 0x00, 0x00, 0x00, 0x02, 0x00, 0x00, 0x00,
  0x02, 0x00, 0x00, 0x00, 0x00, 0x00, 0x00, 0x01, 0x01, 0x00, 0x00, 0x00,
  0x0b, 0x00, 0x00, 0x00, 0x01, 0x00, 0x00, 0x00, 0x0a, 0x00, 0x00, 0x00,
  0x00, 0x00, 0x0e, 0x00, 0x14, 0x00, 0x00, 0x00, 0x10, 0x00, 0x0c, 0x00,
  0x0b, 0x00, 0x04, 0x00, 0x0e, 0x00, 0x00, 0x00, 0x1c, 0x00, 0x00, 0x00,
  0x00, 0x00, 0x00, 0x01, 0x28, 0x00, 0x00, 0x00, 0x2c, 0x00, 0x00, 0x00,
  0x0c, 0x00, 0x14, 0x00, 0x13, 0x00, 0x0c, 0x00, 0x08, 0x00, 0x07, 0x00,
  0x0c, 0x00, 0x00, 0x00, 0x00, 0x00, 0x00, 0x01, 0x01, 0x00, 0x00, 0x00,
  0x01, 0x00, 0x00, 0x00, 0x00, 0x00, 0x00, 0x01, 0x01, 0x00, 0x00, 0x00,
  0x0a, 0x00, 0x00, 0x00, 0x03, 0x00, 0x00, 0x00, 0x00, 0x00, 0x00, 0x00,
  0x08, 0x00, 0x00, 0x00, 0x06, 0x00, 0x00, 0x00, 0x01, 0x00, 0x00, 0x00,
  0x10, 0x00, 0x00, 0x00, 0x01, 0x00, 0x00, 0x00, 0x00, 0x00, 0x00, 0x00,
  0x11, 0x00, 0x00, 0x00, 0xcc, 0x07, 0x00, 0x00, 0x68, 0x07, 0x00, 0x00,
  0x08, 0x07, 0x00, 0x00, 0xbc, 0x06, 0x00, 0x00, 0x4c, 0x06, 0x00, 0x00,
  0xf8, 0x05, 0x00, 0x00, 0xa0, 0x05, 0x00, 0x00, 0x48, 0x05, 0x00, 0x00,
  0xf4, 0x04, 0x00, 0x00, 0xc0, 0x03, 0x00, 0x00, 0xfc, 0x02, 0x00, 0x00,
  0x88, 0x02, 0x00, 0x00, 0xbc, 0x01, 0x00, 0x00, 0x60, 0x01, 0x00, 0x00,
  0xd8, 0x00, 0x00, 0x00, 0x60, 0x00, 0x00, 0x00, 0x04, 0x00, 0x00, 0x00,
  0x8e, 0xf8, 0xff, 0xff, 0x00, 0x00, 0x00, 0x01, 0x14, 0x00, 0x00, 0x00,
  0x1c, 0x00, 0x00, 0x00, 0x1c, 0x00, 0x00, 0x00, 0x11, 0x00, 0x00, 0x00,
  0x34, 0x00, 0x00, 0x00, 0x02, 0x00, 0x00, 0x00, 0xff, 0xff, 0xff, 0xff,
  0x0a, 0x00, 0x00, 0x00, 0x70, 0xf8, 0xff, 0xff, 0x19, 0x00, 0x00, 0x00,
  0x53, 0x74, 0x61, 0x74, 0x65, 0x66, 0x75, 0x6c, 0x50, 0x61, 0x72, 0x74,
  0x69, 0x74, 0x69, 0x6f, 0x6e, 0x65, 0x64, 0x43, 0x61, 0x6c, 0x6c, 0x3a,
  0x30, 0x00, 0x00, 0x00, 0x02, 0x00, 0x00, 0x00, 0x01, 0x00, 0x00, 0x00,
  0x0a, 0x00, 0x00, 0x00, 0xe6, 0xf8, 0xff, 0xff, 0x00, 0x00, 0x00, 0x01,
  0x14, 0x00, 0x00, 0x00, 0x1c, 0x00, 0x00, 0x00, 0x1c, 0x00, 0x00, 0x00,
  0x10, 0x00, 0x00, 0x00, 0x50, 0x00, 0x00, 0x00, 0x02, 0x00, 0x00, 0x00,
  0xff, 0xff, 0xff, 0xff, 0x0a, 0x00, 0x00, 0x00, 0xc8, 0xf8, 0xff, 0xff,
  0x34, 0x00, 0x00, 0x00, 0x73, 0x65, 0x71, 0x75, 0x65, 0x6e, 0x74, 0x69,
  0x61, 0x6c, 0x2f, 0x64, 0x65, 0x6e, 0x73, 0x65, 0x5f, 0x31, 0x2f, 0x4d,
  0x61, 0x74, 0x4d, 0x75, 0x6c, 0x3b, 0x73, 0x65, 0x71, 0x75, 0x65, 0x6e,
  0x74, 0x69, 0x61, 0x6c, 0x2f, 0x64, 0x65, 0x6e, 0x73, 0x65, 0x5f, 0x31,
  0x2f, 0x42, 0x69, 0x61, 0x73, 0x41, 0x64, 0x64, 0x00, 0x00, 0x00, 0x00,
  0x02, 0x00, 0x00, 0x00, 0x01, 0x00, 0x00, 0x00, 0x0a, 0x00, 0x00, 0x00,
  0x5a, 0xf9, 0xff, 0xff, 0x00, 0x00, 0x00, 0x01, 0x14, 0x00, 0x00, 0x00,
  0x1c, 0x00, 0x00, 0x00, 0x1c, 0x00, 0x00, 0x00, 0x0f, 0x00, 0x00, 0x00,
  0x60, 0x00, 0x00, 0x00, 0x02, 0x00, 0x00, 0x00, 0xff, 0xff, 0xff, 0xff,
  0x20, 0x00, 0x00, 0x00, 0x3c, 0xf9, 0xff, 0xff, 0x46, 0x00, 0x00, 0x00,
  0x73, 0x65, 0x71, 0x75, 0x65, 0x6e, 0x74, 0x69, 0x61, 0x6c, 0x2f, 0x64,
  0x65, 0x6e, 0x73, 0x65, 0x2f, 0x4d, 0x61, 0x74, 0x4d, 0x75, 0x6c, 0x3b,
  0x73, 0x65, 0x71, 0x75, 0x65, 0x6e, 0x74, 0x69, 0x61, 0x6c, 0x2f, 0x64,
  0x65, 0x6e, 0x73, 0x65, 0x2f, 0x52, 0x65, 0x6c, 0x75, 0x3b, 0x73, 0x65,
  0x71, 0x75, 0x65, 0x6e, 0x74, 0x69, 0x61, 0x6c, 0x2f, 0x64, 0x65, 0x6e,
  0x73, 0x65, 0x2f, 0x42, 0x69, 0x61, 0x73, 0x41, 0x64, 0x64, 0x00, 0x00,
  0x02, 0x00, 0x00, 0x00, 0x01, 0x00, 0x00, 0x00, 0x20, 0x00, 0x00, 0x00,
  0xde, 0xf9, 0xff, 0xff, 0x00, 0x00, 0x00, 0x01, 0x14, 0x00, 0x00, 0x00,
  0x1c, 0x00, 0x00, 0x00, 0x1c, 0x00, 0x00, 0x00, 0x0e, 0x00, 0x00, 0x00,
  0x34, 0x00, 0x00, 0x00, 0x02, 0x00, 0x00, 0x00, 0xff, 0xff, 0xff, 0xff,
  0x10, 0x00, 0x00, 0x00, 0xc0, 0xf9, 0xff, 0xff, 0x1a, 0x00, 0x00, 0x00,
  0x73, 0x65, 0x71, 0x75, 0x65, 0x6e, 0x74, 0x69, 0x61, 0x6c, 0x2f, 0x66,
  0x6c, 0x61, 0x74, 0x74, 0x65, 0x6e, 0x2f, 0x52, 0x65, 0x73, 0x68, 0x61,
  0x70, 0x65, 0x00, 0x00, 0x02, 0x00, 0x00, 0x00, 0x01, 0x00, 0x00, 0x00,
  0x10, 0x00, 0x00, 0x00, 0x36, 0xfa, 0xff, 0xff, 0x00, 0x00, 0x00, 0x01,
  0x14, 0x00, 0x00, 0x00, 0x24, 0x00, 0x00, 0x00, 0x24, 0x00, 0x00, 0x00,
  0x0d, 0x00, 0x00, 0x00, 0x9c, 0x00, 0x00, 0x00, 0x04, 0x00, 0x00, 0x00,
  0xff, 0xff, 0xff, 0xff, 0x01, 0x00, 0x00, 0x00, 0x01, 0x00, 0x00, 0x00,
  0x10, 0x00, 0x00, 0x00, 0x20, 0xfa, 0xff, 0xff, 0x7a, 0x00, 0x00, 0x00,
  0x73, 0x65, 0x71, 0x75, 0x65, 0x6e, 0x74, 0x69, 0x61, 0x6c, 0x2f, 0x63,
  0x6f, 0x6e, 0x76, 0x32, 0x64, 0x5f, 0x31, 0x2f, 0x52, 0x65, 0x6c, 0x75,
  0x3b, 0x73, 0x65, 0x71, 0x75, 0x65, 0x6e, 0x74, 0x69, 0x61, 0x6c, 0x2f,
  0x63, 0x6f, 0x6e, 0x76, 0x32, 0x64, 0x5f, 0x31, 0x2f, 0x42, 0x69, 0x61,
  0x73, 0x41, 0x64, 0x64, 0x3b, 0x73, 0x65, 0x71, 0x75, 0x65, 0x6e, 0x74,
  0x69, 0x61, 0x6c, 0x2f, 0x63, 0x6f, 0x6e, 0x76, 0x32, 0x64, 0x5f, 0x31,
  0x2f, 0x43, 0x6f, 0x6e, 0x76, 0x32, 0x44, 0x3b, 0x73, 0x65, 0x71, 0x75,
  0x65, 0x6e, 0x74, 0x69, 0x61, 0x6c, 0x2f, 0x63, 0x6f, 0x6e, 0x76, 0x32,
  0x64, 0x5f, 0x31, 0x2f, 0x42, 0x69, 0x61, 0x73, 0x41, 0x64, 0x64, 0x2f,
  0x52, 0x65, 0x61, 0x64, 0x56, 0x61, 0x72, 0x69, 0x61, 0x62, 0x6c, 0x65,
  0x4f, 0x70, 0x00, 0x00, 0x04, 0x00, 0x00, 0x00, 0x01, 0x00, 0x00, 0x00,
  0x01, 0x00, 0x00, 0x00, 0x01, 0x00, 0x00, 0x00, 0x10, 0x00, 0x00, 0x00,
  0xfe, 0xfa, 0xff, 0xff, 0x00, 0x00, 0x00, 0x01, 0x14, 0x00, 0x00, 0x00,
  0x24, 0x00, 0x00, 0x00, 0x24, 0x00, 0x00, 0x00, 0x0c, 0x00, 0x00, 0x00,
  0x44, 0x00, 0x00, 0x00, 0x04, 0x00, 0x00, 0x00, 0xff, 0xff, 0xff, 0xff,
  0x03, 0x00, 0x00, 0x00, 0x03, 0x00, 0x00, 0x00, 0x08, 0x00, 0x00, 0x00,
  0xe8, 0xfa, 0xff, 0xff, 0x20, 0x00, 0x00, 0x00, 0x73, 0x65, 0x71, 0x75,
  0x65, 0x6e, 0x74, 0x69, 0x61, 0x6c, 0x2f, 0x6d, 0x61, 0x78, 0x5f, 0x70,
  0x6f, 0x6f, 0x6c, 0x69, 0x6e, 0x67, 0x32, 0x64, 0x2f, 0x4d, 0x61, 0x78,
  0x50, 0x6f, 0x6f, 0x6c, 0x00, 0x00, 0x00, 0x00, 0x04, 0x00, 0x00, 0x00,
  0x01, 0x00, 0x00, 0x00, 0x03, 0x00, 0x00, 0x00, 0x03, 0x00, 0x00, 0x00,
  0x08, 0x00, 0x00, 0x00, 0x6e, 0xfb, 0xff, 0xff, 0x00, 0x00, 0x00, 0x01,
  0x14, 0x00, 0x00, 0x00, 0x24, 0x00, 0x00, 0x00, 0x24, 0x00, 0x00, 0x00,
  0x0b, 0x00, 0x00, 0x00, 0x94, 0x00, 0x00, 0x00, 0x04, 0x00, 0x00, 0x00,
  0xff, 0xff, 0xff, 0xff, 0x06, 0x00, 0x00, 0x00, 0x06, 0x00, 0x00, 0x00,
  0x08, 0x00, 0x00, 0x00, 0x58, 0xfb, 0xff, 0xff, 0x72, 0x00, 0x00, 0x00,
  0x73, 0x65, 0x71, 0x75, 0x65, 0x6e, 0x74, 0x69, 0x61, 0x6c, 0x2f, 0x63,
  0x6f, 0x6e, 0x76, 0x32, 0x64, 0x2f, 0x52, 0x65, 0x6c, 0x75, 0x3b, 0x73,
  0x65, 0x71, 0x75, 0x65, 0x6e, 0x74, 0x69, 0x61, 0x6c, 0x2f, 0x63, 0x6f,
  0x6e, 0x76, 0x32, 0x64, 0x2f, 0x42, 0x69, 0x61, 0x73, 0x41, 0x64, 0x64,
  0x3b, 0x73, 0x65, 0x71, 0x75, 0x65, 0x6e, 0x74, 0x69, 0x61, 0x6c, 0x2f,
  0x63, 0x6f, 0x6e, 0x76, 0x32, 0x64, 0x2f, 0x43, 0x6f, 0x6e, 0x76, 0x32,
  0x44, 0x3b, 0x73, 0x65, 0x71, 0x75, 0x65, 0x6e, 0x74, 0x69, 0x61, 0x6c,
  0x2f, 0x63, 0x6f, 0x6e, 0x76, 0x32, 0x64, 0x2f, 0x42, 0x69, 0x61, 0x73,
  0x41, 0x64, 0x64, 0x2f, 0x52, 0x65, 0x61, 0x64, 0x56, 0x61, 0x72, 0x69,
  0x61, 0x62, 0x6c, 0x65, 0x4f, 0x70, 0x00, 0x00, 0x04, 0x00, 0x00, 0x00,
  0x01, 0x00, 0x00, 0x00, 0x06, 0x00, 0x00, 0x00, 0x06, 0x00, 0x00, 0x00,
  0x08, 0x00, 0x00, 0x00, 0x32, 0xfd, 0xff, 0xff, 0x00, 0x00, 0x00, 0x01,
  0x20, 0x00, 0x00, 0x00, 0xf0, 0x00, 0x00, 0x00, 0x0a, 0x00, 0x00, 0x00,
  0x00, 0x00, 0x00, 0x09, 0x04, 0x01, 0x00, 0x00, 0x0c, 0x00, 0x0c, 0x00,
  0x00, 0x00, 0x00, 0x00, 0x08, 0x00, 0x04, 0x00, 0x0c, 0x00, 0x00, 0x00,
  0x08, 0x00, 0x00, 0x00, 0x88, 0x00, 0x00, 0x00, 0x10, 0x00, 0x00, 0x00,
  0x00, 0x00, 0x00, 0x00, 0x00, 0x00, 0x00, 0x00, 0x00, 0x00, 0x00, 0x00,
  0x00, 0x00, 0x00, 0x00, 0x00, 0x00, 0x00, 0x00, 0x00, 0x00, 0x00, 0x00,
  0x00, 0x00, 0x00, 0x00, 0x00, 0x00, 0x00, 0x00, 0x00, 0x00, 0x00, 0x00,
  0x00, 0x00, 0x00, 0x00, 0x00, 0x00, 0x00, 0x00, 0x00, 0x00, 0x00, 0x00,
  0x00, 0x00, 0x00, 0x00, 0x00, 0x00, 0x00, 0x00, 0x00, 0x00, 0x00, 0x00,
  0x00, 0x00, 0x00, 0x00, 0x00, 0x00, 0x00, 0x00, 0x00, 0x00, 0x00, 0x00,
  0x00, 0x00, 0x00, 0x00, 0x00, 0x00, 0x00, 0x00, 0x00, 0x00, 0x00, 0x00,
  0x00, 0x00, 0x00, 0x00, 0x00, 0x00, 0x00, 0x00, 0x00, 0x00, 0x00, 0x00,
  0x00, 0x00, 0x00, 0x00, 0x00, 0x00, 0x00, 0x00, 0x00, 0x00, 0x00, 0x00,
  0x00, 0x00, 0x00, 0x00, 0x00, 0x00, 0x00, 0x00, 0x00, 0x00, 0x00, 0x00,
  0x00, 0x00, 0x00, 0x00, 0x00, 0x00, 0x00, 0x00, 0x10, 0x00, 0x00, 0x00,
  0xb5, 0x41, 0x48, 0x3b, 0xcb, 0x13, 0x8c, 0x3b, 0x78, 0xc1, 0x4a, 0x3b,
  0xf5, 0x64, 0xb4, 0x3a, 0xf1, 0xfa, 0xb6, 0x3a, 0x71, 0xd0, 0x54, 0x3b,
  0x8a, 0xc7, 0x51, 0x3b, 0x99, 0xc0, 0x70, 0x3b, 0xed, 0xf6, 0x88, 0x3b,
  0xa8, 0x62, 0x81, 0x3b, 0xac, 0xd1, 0xaf, 0x3a, 0xe9, 0x8e, 0xb2, 0x3a,
  0x99, 0x92, 0x70, 0x3b, 0x3b, 0x95, 0x9a, 0x3b, 0xe4, 0x09, 0x96, 0x3b,
  0xdf, 0x2b, 0x95, 0x3b, 0x1a, 0x00, 0x00, 0x00, 0x73, 0x65, 0x71, 0x75,
  0x65, 0x6e, 0x74, 0x69, 0x61, 0x6c, 0x2f, 0x63, 0x6f, 0x6e, 0x76, 0x32,
  0x64, 0x5f, 0x31, 0x2f, 0x43, 0x6f, 0x6e, 0x76, 0x32, 0x44, 0x00, 0x00,
  0x04, 0x00, 0x00, 0x00, 0x10, 0x00, 0x00, 0x00, 0x03, 0x00, 0x00, 0x00,
  0x03, 0x00, 0x00, 0x00, 0x08, 0x00, 0x00, 0x00, 0xbe, 0xfd, 0xff, 0xff,
  0x00, 0x00, 0x00, 0x01, 0x10, 0x00, 0x00, 0x00, 0x10, 0x00, 0x00, 0x00,
  0x09, 0x00, 0x00, 0x00, 0x28, 0x00, 0x00, 0x00, 0x30, 0xfd, 0xff, 0xff,
  0x18, 0x00, 0x00, 0x00, 0x73, 0x65, 0x71, 0x75, 0x65, 0x6e, 0x74, 0x69,
  0x61, 0x6c, 0x2f, 0x63, 0x6f, 0x6e, 0x76, 0x32, 0x64, 0x2f, 0x43, 0x6f,
  0x6e, 0x76, 0x32, 0x44, 0x00, 0x00, 0x00, 0x00, 0x04, 0x00, 0x00, 0x00,
  0x08, 0x00, 0x00, 0x00, 0x03, 0x00, 0x00, 0x00, 0x03, 0x00, 0x00, 0x00,
  0x01, 0x00, 0x00, 0x00, 0x0e, 0xfe, 0xff, 0xff, 0x00, 0x00, 0x00, 0x01,
  0x10, 0x00, 0x00, 0x00, 0x10, 0x00, 0x00, 0x00, 0x08, 0x00, 0x00, 0x00,
  0x38, 0x00, 0x00, 0x00, 0x80, 0xfd, 0xff, 0xff, 0x2a, 0x00, 0x00, 0x00,
  0x73, 0x65, 0x71, 0x75, 0x65, 0x6e, 0x74, 0x69, 0x61, 0x6c, 0x2f, 0x63,
  0x6f, 0x6e, 0x76, 0x32, 0x64, 0x5f, 0x31, 0x2f, 0x42, 0x69, 0x61, 0x73,
  0x41, 0x64, 0x64, 0x2f, 0x52, 0x65, 0x61, 0x64, 0x56, 0x61, 0x72, 0x69,
  0x61, 0x62, 0x6c, 0x65, 0x4f, 0x70, 0x00, 0x00, 0x01, 0x00, 0x00, 0x00,
  0x10, 0x00, 0x00, 0x00, 0x62, 0xfe, 0xff, 0xff, 0x00, 0x00, 0x00, 0x01,
  0x10, 0x00, 0x00, 0x00, 0x10, 0x00, 0x00, 0x00, 0x07, 0x00, 0x00, 0x00,
  0x38, 0x00, 0x00, 0x00, 0xd4, 0xfd, 0xff, 0xff, 0x28, 0x00, 0x00, 0x00,
  0x73, 0x65, 0x71, 0x75, 0x65, 0x6e, 0x74, 0x69, 0x61, 0x6c, 0x2f, 0x63,
  0x6f, 0x6e, 0x76, 0x32, 0x64, 0x2f, 0x42, 0x69, 0x61, 0x73, 0x41, 0x64,
  0x64, 0x2f, 0x52, 0x65, 0x61, 0x64, 0x56, 0x61, 0x72, 0x69, 0x61, 0x62,
  0x6c, 0x65, 0x4f, 0x70, 0x00, 0x00, 0x00, 0x00, 0x01, 0x00, 0x00, 0x00,
  0x08, 0x00, 0x00, 0x00, 0xb6, 0xfe, 0xff, 0xff, 0x00, 0x00, 0x00, 0x01,
  0x10, 0x00, 0x00, 0x00, 0x10, 0x00, 0x00, 0x00, 0x06, 0x00, 0x00, 0x00,
  0x34, 0x00, 0x00, 0x00, 0x28, 0xfe, 0xff, 0xff, 0x27, 0x00, 0x00, 0x00,
  0x73, 0x65, 0x71, 0x75, 0x65, 0x6e, 0x74, 0x69, 0x61, 0x6c, 0x2f, 0x64,
  0x65, 0x6e, 0x73, 0x65, 0x2f, 0x42, 0x69, 0x61, 0x73, 0x41, 0x64, 0x64,
  0x2f, 0x52, 0x65, 0x61, 0x64, 0x56, 0x61, 0x72, 0x69, 0x61, 0x62, 0x6c,
  0x65, 0x4f, 0x70, 0x00, 0x01, 0x00, 0x00, 0x00, 0x20, 0x00, 0x00, 0x00,
  0x06, 0xff, 0xff, 0xff, 0x00, 0x00, 0x00, 0x01, 0x10, 0x00, 0x00, 0x00,
  0x10, 0x00, 0x00, 0x00, 0x05, 0x00, 0x00, 0x00, 0x38, 0x00, 0x00, 0x00,
  0x78, 0xfe, 0xff, 0xff, 0x29, 0x00, 0x00, 0x00, 0x73, 0x65, 0x71, 0x75,
  0x65, 0x6e, 0x74, 0x69, 0x61, 0x6c, 0x2f, 0x64, 0x65, 0x6e, 0x73, 0x65,
  0x5f, 0x31, 0x2f, 0x42, 0x69, 0x61, 0x73, 0x41, 0x64, 0x64, 0x2f, 0x52,
  0x65, 0x61, 0x64, 0x56, 0x61, 0x72, 0x69, 0x61, 0x62, 0x6c, 0x65, 0x4f,
  0x70, 0x00, 0x00, 0x00, 0x01, 0x00, 0x00, 0x00, 0x0a, 0x00, 0x00, 0x00,
  0x00, 0x00, 0x16, 0x00, 0x1c, 0x00, 0x18, 0x00, 0x17, 0x00, 0x10, 0x00,
  0x0c, 0x00, 0x08, 0x00, 0x00, 0x00, 0x00, 0x00, 0x00, 0x00, 0x07, 0x00,
  0x16, 0x00, 0x00, 0x00, 0x00, 0x00, 0x00, 0x01, 0x14, 0x00, 0x00, 0x00,
  0x14, 0x00, 0x00, 0x00, 0x04, 0x00, 0x00, 0x00, 0x00, 0x00, 0x00, 0x02,
  0x28, 0x00, 0x00, 0x00, 0xe8, 0xfe, 0xff, 0xff, 0x18, 0x00, 0x00, 0x00,
  0x73, 0x65, 0x71, 0x75, 0x65, 0x6e, 0x74, 0x69, 0x61, 0x6c, 0x2f, 0x66,
  0x6c, 0x61, 0x74, 0x74, 0x65, 0x6e, 0x2f, 0x43, 0x6f, 0x6e, 0x73, 0x74,
  0x00, 0x00, 0x00, 0x00, 0x01, 0x00, 0x00, 0x00, 0x02, 0x00, 0x00, 0x00,
  0xba, 0xff, 0xff, 0xff, 0x00, 0x00, 0x00, 0x01, 0x10, 0x00, 0x00, 0x00,
  0x10, 0x00, 0x00, 0x00, 0x03, 0x00, 0x00, 0x00, 0x24, 0x00, 0x00, 0x00,
  0x2c, 0xff, 0xff, 0xff, 0x17, 0x00, 0x00, 0x00, 0x73, 0x65, 0x71, 0x75,
  0x65, 0x6e, 0x74, 0x69, 0x61, 0x6c, 0x2f, 0x64, 0x65, 0x6e, 0x73, 0x65,
  0x2f, 0x4d, 0x61, 0x74, 0x4d, 0x75, 0x6c, 0x00, 0x02, 0x00, 0x00, 0x00,
  0x20, 0x00, 0x00, 0x00, 0x10, 0x00, 0x00, 0x00, 0x00, 0x00, 0x16, 0x00,
  0x18, 0x00, 0x14, 0x00, 0x00, 0x00, 0x10, 0x00, 0x0c, 0x00, 0x08, 0x00,
  0x00, 0x00, 0x00, 0x00, 0x00, 0x00, 0x07, 0x00, 0x16, 0x00, 0x00, 0x00,
  0x00, 0x00, 0x00, 0x01, 0x10, 0x00, 0x00, 0x00, 0x10, 0x00, 0x00, 0x00,
  0x02, 0x00, 0x00, 0x00, 0x28, 0x00, 0x00, 0x00, 0x88, 0xff, 0xff, 0xff,
  0x19, 0x00, 0x00, 0x00, 0x73, 0x65, 0x71, 0x75, 0x65, 0x6e, 0x74, 0x69,
  0x61, 0x6c, 0x2f, 0x64, 0x65, 0x6e, 0x73, 0x65, 0x5f, 0x31, 0x2f, 0x4d,
  0x61, 0x74, 0x4d, 0x75, 0x6c, 0x00, 0x00, 0x00, 0x02, 0x00, 0x00, 0x00,
  0x0a, 0x00, 0x00, 0x00, 0x20, 0x00, 0x00, 0x00, 0x00, 0x00, 0x16, 0x00,
  0x1c, 0x00, 0x18, 0x00, 0x00, 0x00, 0x14, 0x00, 0x10, 0x00, 0x0c, 0x00,
  0x00, 0x00, 0x00, 0x00, 0x08, 0x00, 0x07, 0x00, 0x16, 0x00, 0x00, 0x00,
  0x00, 0x00, 0x00, 0x01, 0x14, 0x00, 0x00, 0x00, 0x28, 0x00, 0x00, 0x00,
  0x28, 0x00, 0x00, 0x00, 0x01, 0x00, 0x00, 0x00, 0x44, 0x00, 0x00, 0x00,
  0x04, 0x00, 0x00, 0x00, 0xff, 0xff, 0xff, 0xff, 0x08, 0x00, 0x00, 0x00,
  0x08, 0x00, 0x00, 0x00, 0x01, 0x00, 0x00, 0x00, 0x04, 0x00, 0x04, 0x00,
  0x04, 0x00, 0x00, 0x00, 0x1e, 0x00, 0x00, 0x00, 0x73, 0x65, 0x72, 0x76,
  0x69, 0x6e, 0x67, 0x5f, 0x64, 0x65, 0x66, 0x61, 0x75, 0x6c, 0x74, 0x5f,
  0x63, 0x6f, 0x6e, 0x76, 0x32, 0x64, 0x5f, 0x69, 0x6e, 0x70, 0x75, 0x74,
  0x3a, 0x30, 0x00, 0x00, 0x04, 0x00, 0x00, 0x00, 0x01, 0x00, 0x00, 0x00,
  0x08, 0x00, 0x00, 0x00, 0x08, 0x00, 0x00, 0x00, 0x01, 0x00, 0x00, 0x00,
  0x05, 0x00, 0x00, 0x00, 0x5c, 0x00, 0x00, 0x00, 0x40, 0x00, 0x00, 0x00,
  0x24, 0x00, 0x00, 0x00, 0x14, 0x00, 0x00, 0x00, 0x04, 0x00, 0x00, 0x00,
  0xdc, 0xff, 0xff, 0xff, 0x19, 0x00, 0x00, 0x00, 0x00, 0x00, 0x00, 0x19,
  0xe8, 0xff, 0xff, 0xff, 0x09, 0x00, 0x00, 0x00, 0x00, 0x00, 0x00, 0x09,
  0xf4, 0xff, 0xff, 0xff, 0x16, 0x00, 0x00, 0x00, 0x00, 0x00, 0x00, 0x16,
  0x0c, 0x00, 0x0c, 0x00, 0x0b, 0x00, 0x00, 0x00, 0x00, 0x00, 0x04, 0x00,
  0x0c, 0x00, 0x00, 0x00, 0x11, 0x00, 0x00, 0x00, 0x00, 0x00, 0x00, 0x11,
  0x0c, 0x00, 0x10, 0x00, 0x0f, 0x00, 0x00, 0x00, 0x08, 0x00, 0x04, 0x00,
  0x0c, 0x00, 0x00, 0x00, 0x03, 0x00, 0x00, 0x00, 0x05, 0x00, 0x00, 0x00,
  0x00, 0x00, 0x00, 0x03
};
unsigned int digits_cnn_quant_tflite_len = 8488;
